#pragma once
// Auto-generated. Size: 21168 bytes
#include <stddef.h>

alignas(16) const unsigned char g_model_data[] = {
  0x20, 0x00, 0x00, 0x00, 0x54, 0x46, 0x4c, 0x33, 0x00, 0x00, 0x00, 0x00,
  0x14, 0x00, 0x20, 0x00, 0x1c, 0x00, 0x18, 0x00, 0x14, 0x00, 0x10, 0x00,
  0x0c, 0x00, 0x00, 0x00, 0x08, 0x00, 0x04, 0x00, 0x14, 0x00, 0x00, 0x00,
  0x1c, 0x00, 0x00, 0x00, 0x8c, 0x00, 0x00, 0x00, 0xe4, 0x00, 0x00, 0x00,
  0xc4, 0x23, 0x00, 0x00, 0xd4, 0x23, 0x00, 0x00, 0xa4, 0x51, 0x00, 0x00,
  0x03, 0x00, 0x00, 0x00, 0x01, 0x00, 0x00, 0x00, 0x04, 0x00, 0x00, 0x00,
  0x06, 0xd8, 0xff, 0xff, 0x0c, 0x00, 0x00, 0x00, 0x1c, 0x00, 0x00, 0x00,
  0x3c, 0x00, 0x00, 0x00, 0x0f, 0x00, 0x00, 0x00, 0x73, 0x65, 0x72, 0x76,
  0x69, 0x6e, 0x67, 0x5f, 0x64, 0x65, 0x66, 0x61, 0x75, 0x6c, 0x74, 0x00,
  0x01, 0x00, 0x00, 0x00, 0x04, 0x00, 0x00, 0x00, 0x90, 0xff, 0xff, 0xff,
  0x2b, 0x00, 0x00, 0x00, 0x04, 0x00, 0x00, 0x00, 0x08, 0x00, 0x00, 0x00,
  0x6f, 0x75, 0x74, 0x70, 0x75, 0x74, 0x5f, 0x30, 0x00, 0x00, 0x00, 0x00,
  0x01, 0x00, 0x00, 0x00, 0x04, 0x00, 0x00, 0x00, 0xda, 0xdb, 0xff, 0xff,
  0x04, 0x00, 0x00, 0x00, 0x0c, 0x00, 0x00, 0x00, 0x6b, 0x65, 0x72, 0x61,
  0x73, 0x5f, 0x74, 0x65, 0x6e, 0x73, 0x6f, 0x72, 0x00, 0x00, 0x00, 0x00,
  0x02, 0x00, 0x00, 0x00, 0x34, 0x00, 0x00, 0x00, 0x04, 0x00, 0x00, 0x00,
  0xdc, 0xff, 0xff, 0xff, 0x2e, 0x00, 0x00, 0x00, 0x04, 0x00, 0x00, 0x00,
  0x13, 0x00, 0x00, 0x00, 0x43, 0x4f, 0x4e, 0x56, 0x45, 0x52, 0x53, 0x49,
  0x4f, 0x4e, 0x5f, 0x4d, 0x45, 0x54, 0x41, 0x44, 0x41, 0x54, 0x41, 0x00,
  0x08, 0x00, 0x0c, 0x00, 0x08, 0x00, 0x04, 0x00, 0x08, 0x00, 0x00, 0x00,
  0x2d, 0x00, 0x00, 0x00, 0x04, 0x00, 0x00, 0x00, 0x13, 0x00, 0x00, 0x00,
  0x6d, 0x69, 0x6e, 0x5f, 0x72, 0x75, 0x6e, 0x74, 0x69, 0x6d, 0x65, 0x5f,
  0x76, 0x65, 0x72, 0x73, 0x69, 0x6f, 0x6e, 0x00, 0x2f, 0x00, 0x00, 0x00,
  0xdc, 0x22, 0x00, 0x00, 0xd4, 0x22, 0x00, 0x00, 0xc0, 0x22, 0x00, 0x00,
  0xa4, 0x22, 0x00, 0x00, 0x90, 0x22, 0x00, 0x00, 0x74, 0x22, 0x00, 0x00,
  0x58, 0x22, 0x00, 0x00, 0x3c, 0x22, 0x00, 0x00, 0x1c, 0x22, 0x00, 0x00,
  0x8c, 0x21, 0x00, 0x00, 0xfc, 0x20, 0x00, 0x00, 0xec, 0x1c, 0x00, 0x00,
  0x5c, 0x1c, 0x00, 0x00, 0x4c, 0x10, 0x00, 0x00, 0x1c, 0x10, 0x00, 0x00,
  0xec, 0x0f, 0x00, 0x00, 0x5c, 0x0f, 0x00, 0x00, 0x4c, 0x05, 0x00, 0x00,
  0x2c, 0x05, 0x00, 0x00, 0x0c, 0x05, 0x00, 0x00, 0xbc, 0x04, 0x00, 0x00,
  0x4c, 0x01, 0x00, 0x00, 0x44, 0x01, 0x00, 0x00, 0x3c, 0x01, 0x00, 0x00,
  0x34, 0x01, 0x00, 0x00, 0x2c, 0x01, 0x00, 0x00, 0x24, 0x01, 0x00, 0x00,
  0x1c, 0x01, 0x00, 0x00, 0x14, 0x01, 0x00, 0x00, 0x0c, 0x01, 0x00, 0x00,
  0x04, 0x01, 0x00, 0x00, 0xfc, 0x00, 0x00, 0x00, 0xf4, 0x00, 0x00, 0x00,
  0xec, 0x00, 0x00, 0x00, 0xe4, 0x00, 0x00, 0x00, 0xdc, 0x00, 0x00, 0x00,
  0xd4, 0x00, 0x00, 0x00, 0xcc, 0x00, 0x00, 0x00, 0xc4, 0x00, 0x00, 0x00,
  0xbc, 0x00, 0x00, 0x00, 0xb4, 0x00, 0x00, 0x00, 0xac, 0x00, 0x00, 0x00,
  0xa4, 0x00, 0x00, 0x00, 0x9c, 0x00, 0x00, 0x00, 0x94, 0x00, 0x00, 0x00,
  0x74, 0x00, 0x00, 0x00, 0x04, 0x00, 0x00, 0x00, 0x12, 0xdd, 0xff, 0xff,
  0x04, 0x00, 0x00, 0x00, 0x60, 0x00, 0x00, 0x00, 0x0c, 0x00, 0x00, 0x00,
  0x08, 0x00, 0x0e, 0x00, 0x08, 0x00, 0x04, 0x00, 0x08, 0x00, 0x00, 0x00,
  0x10, 0x00, 0x00, 0x00, 0x28, 0x00, 0x00, 0x00, 0x00, 0x00, 0x06, 0x00,
  0x08, 0x00, 0x04, 0x00, 0x06, 0x00, 0x00, 0x00, 0x04, 0x00, 0x00, 0x00,
  0x01, 0x00, 0x00, 0x00, 0xeb, 0x03, 0x00, 0x00, 0x0c, 0x00, 0x18, 0x00,
  0x14, 0x00, 0x10, 0x00, 0x0c, 0x00, 0x04, 0x00, 0x0c, 0x00, 0x00, 0x00,
  0x50, 0x4e, 0x66, 0x79, 0x62, 0x0e, 0x08, 0x2c, 0x02, 0x00, 0x00, 0x00,
  0x02, 0x00, 0x00, 0x00, 0x04, 0x00, 0x00, 0x00, 0x06, 0x00, 0x00, 0x00,
  0x32, 0x2e, 0x32, 0x30, 0x2e, 0x30, 0x00, 0x00, 0x7e, 0xdd, 0xff, 0xff,
  0x04, 0x00, 0x00, 0x00, 0x10, 0x00, 0x00, 0x00, 0x31, 0x2e, 0x31, 0x34,
  0x2e, 0x30, 0x00, 0x00, 0x00, 0x00, 0x00, 0x00, 0x00, 0x00, 0x00, 0x00,
  0x44, 0xb1, 0xff, 0xff, 0x48, 0xb1, 0xff, 0xff, 0x4c, 0xb1, 0xff, 0xff,
  0x50, 0xb1, 0xff, 0xff, 0x54, 0xb1, 0xff, 0xff, 0x58, 0xb1, 0xff, 0xff,
  0x5c, 0xb1, 0xff, 0xff, 0x60, 0xb1, 0xff, 0xff, 0x64, 0xb1, 0xff, 0xff,
  0x68, 0xb1, 0xff, 0xff, 0x6c, 0xb1, 0xff, 0xff, 0x70, 0xb1, 0xff, 0xff,
  0x74, 0xb1, 0xff, 0xff, 0x78, 0xb1, 0xff, 0xff, 0x7c, 0xb1, 0xff, 0xff,
  0x80, 0xb1, 0xff, 0xff, 0x84, 0xb1, 0xff, 0xff, 0x88, 0xb1, 0xff, 0xff,
  0x8c, 0xb1, 0xff, 0xff, 0x90, 0xb1, 0xff, 0xff, 0x94, 0xb1, 0xff, 0xff,
  0x98, 0xb1, 0xff, 0xff, 0x9c, 0xb1, 0xff, 0xff, 0xf6, 0xdd, 0xff, 0xff,
  0x04, 0x00, 0x00, 0x00, 0x60, 0x03, 0x00, 0x00, 0x7f, 0x54, 0xd5, 0x96,
  0xc4, 0x4f, 0xab, 0xb2, 0x09, 0x1d, 0x14, 0x12, 0xd8, 0x1e, 0xf2, 0xc0,
  0x13, 0x0c, 0xf0, 0xf1, 0x40, 0x93, 0xfe, 0xa6, 0x36, 0xa0, 0x67, 0x8a,
  0xd0, 0x2e, 0xcb, 0xdb, 0x51, 0x5f, 0xb8, 0xf3, 0xda, 0xe1, 0x5e, 0xcb,
  0xa7, 0xb5, 0xf5, 0x29, 0xbe, 0x40, 0x33, 0x72, 0x74, 0xb3, 0xbe, 0xd0,
  0x67, 0xb8, 0x4b, 0x3f, 0x15, 0x37, 0xdc, 0x0f, 0x3a, 0xd3, 0xb6, 0xea,
  0xd5, 0x1d, 0xf9, 0x58, 0x81, 0x34, 0x2c, 0x8e, 0x4c, 0xec, 0x8b, 0x50,
  0x50, 0x9a, 0x52, 0xdc, 0x34, 0x41, 0xd5, 0x1b, 0x49, 0x2c, 0xdf, 0x21,
  0x06, 0xb4, 0x4b, 0x06, 0xa9, 0xa6, 0xa7, 0x35, 0x03, 0x55, 0xc0, 0xa8,
  0xbf, 0x4c, 0x1d, 0xd2, 0xe7, 0xc3, 0xa1, 0x29, 0x2a, 0xd6, 0xdf, 0x22,
  0xfa, 0x17, 0xcf, 0x5b, 0x5a, 0xbb, 0xee, 0x15, 0x22, 0x59, 0xbc, 0x9c,
  0xb5, 0xc9, 0x19, 0x4b, 0x4e, 0x0e, 0xe7, 0x54, 0xac, 0x3e, 0x1d, 0xc0,
  0xd6, 0xe9, 0x48, 0x9c, 0xd9, 0xa3, 0xd8, 0xf8, 0xb6, 0xcf, 0x5a, 0x6a,
  0x43, 0xc8, 0xd4, 0xee, 0x13, 0x4e, 0xdf, 0xb1, 0x16, 0xc7, 0xa4, 0x50,
  0x7f, 0x42, 0x19, 0xed, 0x15, 0xd6, 0xb3, 0xa9, 0xe4, 0x18, 0xbc, 0x56,
  0xae, 0xd5, 0x98, 0xbe, 0x02, 0x32, 0x16, 0xd7, 0x4b, 0xca, 0x5f, 0x47,
  0x3a, 0xa8, 0xdb, 0xe9, 0x0b, 0x33, 0x21, 0xf5, 0x15, 0xca, 0xbb, 0x63,
  0x5b, 0x07, 0x9d, 0x30, 0xf3, 0x68, 0xa8, 0x44, 0x0e, 0x9c, 0x5e, 0x0f,
  0xd2, 0x1e, 0xcd, 0xff, 0xc7, 0x7f, 0x5c, 0x45, 0x3e, 0x52, 0x2a, 0x4b,
  0x3b, 0x11, 0x46, 0xec, 0xcd, 0x19, 0xc0, 0x3f, 0x0f, 0xfb, 0x14, 0x7b,
  0x0c, 0x36, 0x26, 0x14, 0xb4, 0x52, 0xe9, 0x87, 0x0c, 0xdb, 0x9c, 0xc7,
  0xaf, 0xdf, 0xa5, 0x85, 0xd5, 0x11, 0x67, 0x08, 0x37, 0xc7, 0x0a, 0x14,
  0x94, 0x39, 0x8b, 0x38, 0x4e, 0x81, 0x41, 0xc7, 0x53, 0x33, 0xfe, 0x85,
  0xd7, 0x0d, 0xc9, 0x0b, 0xb1, 0xab, 0x49, 0xeb, 0x48, 0xd0, 0xb0, 0x13,
  0xe9, 0xc9, 0x14, 0x12, 0xc9, 0x23, 0x41, 0xc8, 0xbd, 0x04, 0x64, 0xef,
  0xfb, 0xf9, 0x2b, 0xe1, 0x57, 0x4c, 0x8d, 0xa4, 0x24, 0x48, 0x12, 0xd6,
  0xcd, 0x77, 0xa6, 0x4f, 0x52, 0x0e, 0x93, 0xb9, 0x32, 0x34, 0x60, 0x81,
  0x48, 0xc1, 0xf9, 0x84, 0x28, 0x8c, 0x7b, 0xdf, 0x5b, 0x1c, 0xec, 0x16,
  0x7a, 0xb5, 0xd8, 0x48, 0x3d, 0x81, 0x43, 0xf5, 0xb9, 0xb5, 0x24, 0x47,
  0xe5, 0x6e, 0x15, 0x49, 0xaf, 0x4b, 0x62, 0xfe, 0x3d, 0xe2, 0x8f, 0x3a,
  0x00, 0x27, 0x49, 0x3d, 0xd7, 0xd8, 0x17, 0x33, 0x23, 0xf3, 0xc7, 0x5c,
  0xb9, 0xa4, 0xa9, 0x10, 0x5c, 0xf6, 0x97, 0x42, 0xa0, 0xe1, 0xe7, 0x5d,
  0xe7, 0x16, 0x01, 0x19, 0x0a, 0x0b, 0xfd, 0x0b, 0x08, 0xbf, 0xdb, 0x14,
  0x57, 0x9e, 0xe1, 0x13, 0xab, 0xf4, 0xb5, 0x27, 0x4b, 0xda, 0xc2, 0x88,
  0x9e, 0x41, 0x0d, 0x1d, 0x4d, 0x05, 0xcf, 0xf3, 0x3a, 0x9a, 0x0e, 0x97,
  0xa7, 0xa4, 0xc5, 0x98, 0xa5, 0x73, 0x4e, 0xfa, 0x0e, 0xd6, 0x7f, 0x9c,
  0xa9, 0x57, 0x0b, 0x54, 0x6c, 0xb4, 0xc9, 0x0f, 0xc4, 0x1d, 0x5c, 0xe1,
  0x23, 0xe4, 0x5d, 0xb2, 0xf6, 0xc5, 0xd3, 0xd2, 0xb7, 0x2f, 0x01, 0xfb,
  0xe3, 0xb1, 0xef, 0xa6, 0x3b, 0x3c, 0xd2, 0x50, 0x1b, 0xbe, 0x14, 0x2f,
  0x3d, 0xe3, 0x9f, 0xff, 0x01, 0xf1, 0x04, 0xa0, 0x62, 0xe8, 0x41, 0xc6,
  0x27, 0x0f, 0x29, 0x7f, 0x45, 0x13, 0x20, 0x31, 0xa6, 0x0d, 0xae, 0x10,
  0xe9, 0xc4, 0x55, 0x3a, 0x21, 0x78, 0xd3, 0xab, 0xa4, 0xe4, 0xb2, 0x23,
  0xd0, 0x08, 0xa6, 0x02, 0xdb, 0xab, 0xba, 0x91, 0x63, 0x4f, 0xb3, 0x40,
  0xbd, 0xd1, 0x73, 0xbb, 0x18, 0x43, 0xda, 0xbd, 0x50, 0x5c, 0xbb, 0x42,
  0x09, 0xca, 0x6c, 0x36, 0x7f, 0x39, 0xdc, 0xb0, 0xd1, 0x5d, 0x74, 0x22,
  0xdc, 0x4f, 0xcd, 0x59, 0x69, 0xd7, 0x2d, 0xa2, 0xef, 0xdb, 0x99, 0x31,
  0x2b, 0x2c, 0xe5, 0xf0, 0x0d, 0x75, 0x9a, 0x2d, 0xf3, 0xbd, 0x2c, 0xd5,
  0x2d, 0x5e, 0xa7, 0x54, 0x48, 0xbf, 0x33, 0xc8, 0x48, 0x57, 0x9e, 0xa6,
  0xf9, 0x32, 0x98, 0xf9, 0x1c, 0xf4, 0xed, 0x19, 0x3c, 0x19, 0xcb, 0x27,
  0x55, 0xc9, 0xde, 0xf7, 0x1a, 0x95, 0x15, 0xb6, 0x57, 0x7f, 0x47, 0x31,
  0x17, 0xec, 0xb6, 0x3c, 0x42, 0x19, 0x57, 0x05, 0xd0, 0x8b, 0x7e, 0x94,
  0x79, 0x6a, 0xc9, 0x9e, 0x1c, 0x19, 0x61, 0x0a, 0x3c, 0xab, 0x66, 0x5f,
  0x1d, 0x69, 0x81, 0x0c, 0xb9, 0x3c, 0x74, 0x0b, 0xe0, 0x23, 0x8f, 0x31,
  0x67, 0x53, 0x2b, 0x10, 0x17, 0xde, 0xc8, 0xec, 0xfb, 0xae, 0xdb, 0x4c,
  0x1d, 0x91, 0xed, 0x22, 0x8a, 0xa6, 0xad, 0x57, 0x5c, 0x3c, 0xbb, 0xe9,
  0xbe, 0x63, 0x68, 0x81, 0xb8, 0xcc, 0x04, 0xf5, 0xdb, 0xaa, 0xd7, 0x4d,
  0x97, 0xe9, 0x35, 0x04, 0x44, 0x6c, 0xbc, 0xb1, 0x1d, 0xc9, 0x0f, 0xb6,
  0xd6, 0xf0, 0x35, 0xf0, 0xf7, 0x1c, 0x1c, 0x0b, 0x9b, 0x42, 0xe3, 0x58,
  0xd2, 0xbc, 0x4b, 0x1e, 0x66, 0x27, 0x50, 0x59, 0xa4, 0x64, 0xb8, 0x01,
  0x5a, 0xc2, 0xae, 0x9c, 0x2c, 0x6d, 0xa3, 0x56, 0xe7, 0x28, 0x33, 0x1c,
  0xf0, 0xa9, 0x9c, 0xae, 0x4b, 0xb6, 0x54, 0x12, 0xc7, 0x81, 0xe5, 0xb7,
  0x6a, 0x3b, 0xae, 0x39, 0x54, 0xdf, 0x1f, 0xe4, 0xac, 0xea, 0x3a, 0x77,
  0xc5, 0x1c, 0x53, 0x9e, 0xa3, 0xa7, 0xf4, 0xaa, 0xe8, 0xf9, 0xe6, 0x68,
  0x21, 0xc1, 0x42, 0xbf, 0xc2, 0x36, 0xa7, 0x3d, 0x17, 0x2b, 0xfa, 0xff,
  0x4b, 0x71, 0x51, 0xeb, 0x2d, 0x40, 0xd9, 0x57, 0xcd, 0x45, 0x58, 0xb3,
  0xd1, 0xb3, 0x37, 0xfc, 0xbe, 0x58, 0x10, 0x08, 0xb1, 0xb6, 0xbe, 0x4d,
  0x3e, 0xa7, 0xa3, 0xf2, 0x22, 0x53, 0x81, 0x2f, 0x31, 0xef, 0x2d, 0x0a,
  0xa2, 0x4d, 0x49, 0x48, 0x4c, 0xa6, 0xd1, 0x2e, 0xdd, 0x18, 0x3f, 0x17,
  0x6b, 0xa8, 0x0b, 0xd4, 0x00, 0xeb, 0x05, 0x43, 0xfe, 0xea, 0x57, 0x27,
  0xe6, 0x4d, 0x52, 0xda, 0xb0, 0x03, 0xe4, 0xd4, 0x42, 0xc0, 0x2f, 0x72,
  0xc8, 0x6f, 0xff, 0x63, 0xb5, 0xb1, 0xd7, 0xfb, 0x92, 0xbb, 0x72, 0xeb,
  0x0d, 0xce, 0xc1, 0xd8, 0x17, 0xe5, 0x2f, 0xfc, 0xa1, 0xf9, 0x02, 0x33,
  0x4a, 0xa4, 0x03, 0x79, 0x15, 0x81, 0x75, 0xee, 0x62, 0xe1, 0xff, 0xff,
  0x04, 0x00, 0x00, 0x00, 0x40, 0x00, 0x00, 0x00, 0xdf, 0xfc, 0xff, 0xff,
  0x1e, 0x03, 0x00, 0x00, 0x23, 0xfd, 0xff, 0xff, 0x32, 0x00, 0x00, 0x00,
  0x2f, 0x00, 0x00, 0x00, 0xa3, 0x00, 0x00, 0x00, 0xc7, 0x01, 0x00, 0x00,
  0x62, 0x00, 0x00, 0x00, 0x19, 0x01, 0x00, 0x00, 0xea, 0x01, 0x00, 0x00,
  0x51, 0xfe, 0xff, 0xff, 0x39, 0xfe, 0xff, 0xff, 0xfc, 0xfb, 0xff, 0xff,
  0x44, 0xfd, 0xff, 0xff, 0x15, 0xff, 0xff, 0xff, 0x4a, 0xfc, 0xff, 0xff,
  0xae, 0xe1, 0xff, 0xff, 0x04, 0x00, 0x00, 0x00, 0x10, 0x00, 0x00, 0x00,
  0x7b, 0x4e, 0x7d, 0x57, 0x7f, 0x64, 0x74, 0x64, 0x75, 0x3c, 0x67, 0x52,
  0x67, 0x58, 0x74, 0x73, 0xca, 0xe1, 0xff, 0xff, 0x04, 0x00, 0x00, 0x00,
  0x10, 0x00, 0x00, 0x00, 0x1b, 0x80, 0x38, 0xe4, 0x1e, 0x1d, 0xf1, 0xef,
  0xe1, 0xa5, 0xcf, 0xab, 0xb0, 0xb9, 0xe0, 0xcf, 0xe6, 0xe1, 0xff, 0xff,
  0x04, 0x00, 0x00, 0x00, 0x00, 0x0a, 0x00, 0x00, 0xdc, 0x1d, 0x0e, 0x01,
  0x6c, 0xa6, 0x2e, 0xdc, 0x13, 0xfb, 0xb0, 0x12, 0xe3, 0x5b, 0xc5, 0x53,
  0x5d, 0x1a, 0x45, 0x14, 0x91, 0xfd, 0x0f, 0x5c, 0xd7, 0xd6, 0x1d, 0x95,
  0x32, 0xd5, 0xe7, 0x63, 0xdf, 0x3c, 0x58, 0x4a, 0xe1, 0x7e, 0x26, 0x3b,
  0xc9, 0xbe, 0xaa, 0x43, 0x03, 0xc2, 0x74, 0x6f, 0xab, 0xc8, 0x58, 0x81,
  0x6b, 0x1b, 0x9b, 0x5f, 0x0b, 0x3f, 0xc1, 0x3d, 0x08, 0x7d, 0x32, 0x19,
  0x0c, 0x65, 0xb3, 0x0f, 0x1b, 0x75, 0xd8, 0xb5, 0x7f, 0xcb, 0x42, 0x33,
  0x1b, 0xf6, 0x0c, 0x5f, 0x8b, 0xf6, 0xcb, 0xee, 0xc6, 0x2a, 0xdc, 0x23,
  0xde, 0x3e, 0xe4, 0xae, 0xa2, 0x34, 0x3e, 0xb3, 0xf3, 0xa9, 0xc2, 0x03,
  0x81, 0xd5, 0x37, 0x27, 0x4a, 0x02, 0x9f, 0xc7, 0xca, 0xc5, 0x6c, 0x20,
  0xcf, 0x50, 0x35, 0x41, 0xb9, 0xab, 0xce, 0x08, 0xc0, 0xec, 0x02, 0x1b,
  0xde, 0xfb, 0x26, 0xe6, 0xfe, 0xfa, 0xdb, 0x3a, 0xb3, 0x3b, 0x23, 0xda,
  0xad, 0x4c, 0xc3, 0xb3, 0x41, 0x35, 0x44, 0xb0, 0x2b, 0xd3, 0xf3, 0xd2,
  0x2f, 0xbc, 0x40, 0x04, 0xd5, 0x48, 0x24, 0x3c, 0x5f, 0x4b, 0xb6, 0xb3,
  0x3a, 0x3a, 0x98, 0xa9, 0x32, 0xa7, 0xb6, 0xf5, 0xdf, 0xfb, 0x17, 0x00,
  0x20, 0x9c, 0x45, 0x59, 0xbf, 0x20, 0xdc, 0x2e, 0x19, 0x90, 0xab, 0xe3,
  0x28, 0x9e, 0x37, 0x15, 0x65, 0xc1, 0x4c, 0x5d, 0x2d, 0x07, 0xf7, 0x42,
  0xa9, 0xde, 0xa7, 0x47, 0x28, 0x27, 0xa6, 0x32, 0x3e, 0xfa, 0xab, 0xbc,
  0x3f, 0x2f, 0xca, 0xa2, 0xff, 0xe7, 0xb2, 0xee, 0x43, 0x1e, 0x79, 0x47,
  0x0d, 0x81, 0xb8, 0xe4, 0x53, 0x0f, 0xf4, 0x4d, 0x54, 0x0f, 0xfe, 0xa1,
  0x26, 0x11, 0x4b, 0xe3, 0x16, 0x53, 0x1c, 0xc0, 0x30, 0xff, 0xf9, 0x2a,
  0x12, 0xc8, 0x08, 0xa0, 0x3a, 0xc8, 0x09, 0xd0, 0x0f, 0x31, 0x39, 0xb0,
  0xd8, 0x0e, 0xf2, 0x1f, 0x37, 0xd2, 0x07, 0xe8, 0xe9, 0xf5, 0xc3, 0x07,
  0xd0, 0xf3, 0x0e, 0x8f, 0x54, 0xe8, 0xbd, 0x49, 0x19, 0xe5, 0x4f, 0xbb,
  0x0a, 0x54, 0x1d, 0x1b, 0x1b, 0xe6, 0x9c, 0x43, 0xb2, 0x2d, 0x17, 0x04,
  0xad, 0x9c, 0x65, 0xe6, 0xfd, 0x28, 0xc1, 0x30, 0x82, 0xea, 0xeb, 0x90,
  0x5d, 0xbc, 0x96, 0xee, 0xe9, 0xf0, 0x03, 0xd3, 0x0a, 0xad, 0xa0, 0x02,
  0x1f, 0x44, 0x42, 0x81, 0xb7, 0xcb, 0xfb, 0x01, 0xd9, 0xe3, 0xe1, 0xdf,
  0xaf, 0xde, 0xaf, 0x25, 0x78, 0x32, 0x3d, 0x46, 0x34, 0xaf, 0x41, 0x96,
  0xf9, 0x0c, 0xbf, 0xc8, 0x18, 0xc7, 0x5e, 0x63, 0x15, 0x02, 0x49, 0xb0,
  0x25, 0xc3, 0xef, 0xea, 0x09, 0xce, 0x81, 0x04, 0xeb, 0xa0, 0x54, 0xc2,
  0xdb, 0x9b, 0xe0, 0xc7, 0xa4, 0xd8, 0xa5, 0xe1, 0xfe, 0x0f, 0x27, 0x18,
  0xec, 0xa4, 0xac, 0xae, 0xbb, 0xb5, 0x37, 0xd6, 0x27, 0x10, 0x8b, 0x41,
  0xf5, 0xaa, 0x4e, 0xaa, 0x16, 0x05, 0x3a, 0xcf, 0x52, 0xd4, 0x18, 0x32,
  0x85, 0xa2, 0x1e, 0x3d, 0x47, 0xc7, 0x24, 0x21, 0x26, 0xae, 0x75, 0x52,
  0xfa, 0x4a, 0xc3, 0xd3, 0x27, 0x62, 0x1c, 0xef, 0x44, 0xd2, 0xcf, 0xf8,
  0x2f, 0xd3, 0xf1, 0xab, 0x76, 0x32, 0xb2, 0x0f, 0x94, 0x77, 0x03, 0x35,
  0x59, 0xf0, 0x2d, 0xda, 0xc0, 0xc4, 0xcf, 0xc8, 0x43, 0xe5, 0x3a, 0x24,
  0xb0, 0xd7, 0x46, 0x3a, 0x29, 0x50, 0x76, 0x4f, 0x1e, 0x94, 0x44, 0xe1,
  0x6e, 0x32, 0xea, 0x7f, 0x05, 0x5f, 0x47, 0xec, 0xae, 0x39, 0x3e, 0x53,
  0x60, 0xf7, 0x73, 0xcf, 0x75, 0xaf, 0x12, 0x52, 0x75, 0xe9, 0x05, 0x00,
  0x81, 0x5c, 0x0a, 0x38, 0x6b, 0xfb, 0x02, 0x11, 0xc1, 0xa7, 0x98, 0xb8,
  0xd3, 0xf6, 0x5d, 0x14, 0xc9, 0x99, 0xa7, 0x92, 0xf1, 0xf0, 0xb3, 0xe5,
  0xa9, 0x0c, 0x86, 0x1e, 0xee, 0x02, 0x54, 0x3f, 0xdc, 0x31, 0xa6, 0x9c,
  0x3b, 0x94, 0x6e, 0x4a, 0x03, 0xfa, 0x68, 0xea, 0xb5, 0xb2, 0x24, 0xbb,
  0x3e, 0x37, 0x01, 0xee, 0xaf, 0x82, 0x5d, 0xb3, 0x40, 0xcc, 0x21, 0x6f,
  0x14, 0xf5, 0x4b, 0xc2, 0x2e, 0x01, 0xca, 0x3b, 0xb3, 0xff, 0xea, 0xb7,
  0x0b, 0x9c, 0x17, 0xa5, 0x9b, 0x36, 0x05, 0x08, 0xbd, 0xb8, 0x27, 0x25,
  0xb6, 0xc4, 0xe8, 0xc0, 0xe1, 0x95, 0xc0, 0xdb, 0x2f, 0xeb, 0x0b, 0xaf,
  0x39, 0x2f, 0x01, 0xf6, 0xea, 0xd4, 0x04, 0xf9, 0xdb, 0x4b, 0x0c, 0xa5,
  0xd0, 0x4e, 0xf0, 0x2e, 0x57, 0x1d, 0xc6, 0xbc, 0xcb, 0x3f, 0x12, 0x9d,
  0xd3, 0xb9, 0x10, 0xe6, 0xe7, 0xca, 0x08, 0x39, 0x39, 0x25, 0x55, 0xa8,
  0xef, 0xc7, 0xf5, 0xc0, 0x23, 0xf5, 0xfa, 0x8d, 0x54, 0xc9, 0xbf, 0xd5,
  0xda, 0x34, 0xc9, 0xeb, 0xb6, 0x33, 0x81, 0xf4, 0x49, 0xa7, 0x0b, 0xac,
  0x42, 0xbc, 0xe2, 0xaa, 0xd1, 0x2f, 0xbc, 0x29, 0x56, 0x57, 0xc2, 0x9d,
  0xbd, 0xc0, 0xc9, 0x03, 0x1b, 0xa4, 0x7f, 0x20, 0x95, 0xf7, 0xf9, 0xe3,
  0x07, 0x51, 0x7b, 0x20, 0xf5, 0x55, 0xed, 0x33, 0x81, 0x0c, 0x9d, 0xbb,
  0xe9, 0x5e, 0x3f, 0x45, 0x2e, 0x8e, 0x15, 0x34, 0x3c, 0x3a, 0x1e, 0x38,
  0x48, 0x39, 0xc9, 0x2b, 0xaa, 0xad, 0x56, 0x0e, 0x24, 0x17, 0x21, 0x4d,
  0x36, 0x62, 0x32, 0xe3, 0x49, 0xe1, 0x1f, 0xb2, 0x4c, 0x36, 0xf2, 0xbe,
  0x44, 0x1c, 0x41, 0xfe, 0x4f, 0xe8, 0x56, 0x2e, 0x22, 0xb3, 0xf4, 0x0c,
  0xfd, 0xd7, 0x16, 0xb2, 0x73, 0x10, 0x1d, 0xe9, 0xd6, 0xeb, 0xc7, 0xb2,
  0x1f, 0xa8, 0x03, 0x98, 0xc7, 0x9b, 0x18, 0x01, 0x5f, 0x56, 0x66, 0xc5,
  0x44, 0x9d, 0xf3, 0x8a, 0xe5, 0xd0, 0x59, 0xad, 0xbb, 0xb2, 0x2f, 0xda,
  0x1f, 0xc0, 0x70, 0x5d, 0x2f, 0x18, 0x81, 0x53, 0xdf, 0xdc, 0xee, 0xf4,
  0x17, 0x33, 0x3b, 0x19, 0xc7, 0x63, 0xc2, 0xd4, 0xe8, 0x69, 0x19, 0x33,
  0xe2, 0x37, 0xc7, 0x70, 0x27, 0x6f, 0xb2, 0xc1, 0xcc, 0xb5, 0xf4, 0xe7,
  0x9d, 0xe4, 0xa4, 0xc9, 0xcb, 0xe9, 0xac, 0x30, 0xda, 0x6c, 0x5c, 0x11,
  0x2d, 0xe4, 0x26, 0xd4, 0xc6, 0x16, 0x35, 0xe3, 0x9e, 0x10, 0x2f, 0x03,
  0x3a, 0xd2, 0x48, 0x23, 0xd1, 0xba, 0xd2, 0x2b, 0x37, 0x1c, 0x52, 0x27,
  0xf1, 0x1e, 0x3a, 0xd8, 0xce, 0x59, 0xdf, 0x5c, 0xfc, 0x10, 0x54, 0x2b,
  0x34, 0x36, 0x33, 0xdc, 0xaa, 0xcf, 0x23, 0xc0, 0xb0, 0xd1, 0xa7, 0xb3,
  0xda, 0x07, 0x36, 0x81, 0x43, 0x04, 0x3d, 0x69, 0xb8, 0xd4, 0xfb, 0xc7,
  0xbd, 0xdf, 0xe6, 0xde, 0xab, 0x48, 0x58, 0x00, 0xe4, 0xe3, 0x05, 0x15,
  0x65, 0xc1, 0x41, 0xf4, 0x26, 0xe5, 0xed, 0x70, 0xb5, 0x2a, 0xfc, 0x09,
  0xea, 0x35, 0x92, 0x26, 0xa5, 0xb5, 0x96, 0x26, 0x22, 0xe7, 0xdc, 0xd3,
  0x1e, 0x03, 0xe1, 0xfd, 0xc6, 0xee, 0xd4, 0xe6, 0x65, 0xe4, 0xfe, 0xee,
  0x59, 0x7f, 0xd8, 0xdd, 0x28, 0x9e, 0xd4, 0xcd, 0x39, 0xaf, 0xc3, 0xad,
  0x23, 0x1b, 0xaa, 0x3a, 0x2c, 0xd8, 0xb7, 0x60, 0x3e, 0xbd, 0xd2, 0xa4,
  0x94, 0x40, 0xe8, 0x0d, 0x13, 0xd7, 0xd8, 0xfc, 0xda, 0x20, 0xd5, 0xe3,
  0xd1, 0x31, 0xd0, 0x5a, 0x0c, 0x0f, 0x38, 0xbf, 0x1e, 0x26, 0xa0, 0x48,
  0xaa, 0x2f, 0x2b, 0x38, 0x1c, 0x50, 0x76, 0xa1, 0x5c, 0xb8, 0xe1, 0xe5,
  0xa3, 0x42, 0x4c, 0x07, 0x81, 0x3a, 0xfa, 0x92, 0xfc, 0xcc, 0x4a, 0x52,
  0x42, 0xbf, 0x02, 0xaa, 0xa3, 0x91, 0x48, 0xb6, 0xfc, 0xd0, 0x92, 0xbd,
  0x9b, 0xef, 0x40, 0xd8, 0x0c, 0x4a, 0xc9, 0x0b, 0x3a, 0x1d, 0xf7, 0xe6,
  0xe5, 0x03, 0xae, 0xe3, 0xe4, 0xd2, 0x26, 0xc9, 0x3e, 0x5b, 0xa1, 0x00,
  0xae, 0x30, 0x12, 0xf5, 0x9d, 0x25, 0x5c, 0x74, 0x86, 0x53, 0xfa, 0xb8,
  0xfc, 0xe0, 0xec, 0x15, 0xd9, 0x57, 0x18, 0xdc, 0xfd, 0x04, 0xbd, 0xd6,
  0x07, 0xfc, 0x4d, 0xbf, 0x38, 0x60, 0xba, 0x45, 0x4b, 0xfd, 0x9e, 0xf1,
  0x1b, 0xef, 0xf2, 0x55, 0xb2, 0x57, 0x9e, 0xf4, 0x6f, 0x17, 0xbe, 0x21,
  0x50, 0xec, 0xec, 0x2f, 0xf7, 0xf7, 0xe3, 0x09, 0xb8, 0xbf, 0xc6, 0x3e,
  0xfc, 0xe7, 0x81, 0x1e, 0xf1, 0x2a, 0xfc, 0x56, 0x18, 0xbc, 0x17, 0x35,
  0xb1, 0xce, 0x44, 0xe4, 0xdd, 0x15, 0xfd, 0x3f, 0x03, 0xd2, 0x99, 0x2d,
  0x0e, 0xf4, 0x84, 0x46, 0xa8, 0x44, 0xe6, 0x3a, 0xc2, 0x03, 0xc9, 0xee,
  0xe7, 0xb0, 0xe0, 0xbb, 0x3e, 0xc4, 0x3e, 0x23, 0xf0, 0xd9, 0x26, 0x08,
  0x39, 0x46, 0x41, 0x14, 0x26, 0x3a, 0x36, 0xfa, 0xd3, 0xbf, 0xea, 0xcc,
  0x5e, 0x10, 0xd2, 0xf0, 0x28, 0x10, 0xe6, 0xda, 0x8d, 0x34, 0xc0, 0xc5,
  0x47, 0x53, 0xc6, 0xcf, 0x63, 0x2a, 0x49, 0x0a, 0xa3, 0xe7, 0xcd, 0xcc,
  0x3d, 0x33, 0x6a, 0xed, 0x7f, 0x07, 0x18, 0x69, 0x0c, 0xb6, 0x0f, 0x40,
  0x00, 0x37, 0x74, 0x40, 0xd0, 0xd8, 0xe5, 0xd3, 0x3a, 0xf5, 0xdb, 0x1e,
  0x29, 0x18, 0x5e, 0xb6, 0xc7, 0x0a, 0x3a, 0xd4, 0x91, 0x05, 0x55, 0x2e,
  0x23, 0xf8, 0xec, 0x2f, 0xb0, 0x23, 0xde, 0x60, 0x13, 0x26, 0xa5, 0xda,
  0x32, 0xde, 0x2a, 0xb1, 0xcb, 0x2f, 0x92, 0xef, 0xde, 0x51, 0x53, 0x5f,
  0x96, 0x6c, 0x93, 0x66, 0x94, 0xe8, 0x30, 0xaf, 0x1f, 0xda, 0x9b, 0x13,
  0xd2, 0x07, 0x36, 0xef, 0xf4, 0x28, 0x23, 0x90, 0xaa, 0x37, 0xaa, 0xb0,
  0x16, 0x14, 0x0b, 0xc4, 0xf3, 0xdf, 0x48, 0x26, 0x3d, 0x01, 0x81, 0x4a,
  0xcc, 0xbb, 0xc2, 0x35, 0x36, 0xf1, 0x98, 0x8e, 0xff, 0x4a, 0xb3, 0xff,
  0x58, 0x0d, 0xba, 0x1c, 0x0d, 0xe2, 0x1f, 0x08, 0x36, 0x2a, 0xff, 0x9c,
  0x34, 0x6a, 0x1a, 0x00, 0xf8, 0xc2, 0x68, 0xba, 0x24, 0xa2, 0x79, 0x5a,
  0x42, 0x2a, 0x32, 0x02, 0xd8, 0x2c, 0xa1, 0x5d, 0x3f, 0x48, 0xa4, 0x2e,
  0x3d, 0x07, 0x4b, 0x8a, 0x50, 0xbb, 0xb7, 0xbc, 0xf6, 0xf2, 0x36, 0x34,
  0x02, 0x7f, 0x61, 0x5b, 0xa2, 0xb2, 0x0c, 0x9f, 0x15, 0x52, 0xa6, 0x26,
  0xb2, 0x30, 0xa7, 0x0d, 0x3f, 0xb9, 0x55, 0xfc, 0x63, 0x15, 0x72, 0x24,
  0xc3, 0x4a, 0xb3, 0xe9, 0x45, 0xfb, 0x37, 0xb0, 0x37, 0xc3, 0xda, 0x11,
  0x00, 0x49, 0xf0, 0x40, 0x20, 0xc4, 0xbf, 0x0d, 0x00, 0x49, 0xd8, 0x11,
  0x38, 0x4f, 0x31, 0xbf, 0x29, 0xcb, 0x50, 0x06, 0x27, 0x3d, 0xf2, 0x81,
  0x89, 0x35, 0xe4, 0x45, 0x33, 0x10, 0xd7, 0xe0, 0x13, 0x6e, 0xe3, 0x42,
  0xc7, 0x3e, 0x18, 0xbc, 0x2c, 0x1f, 0xc1, 0x78, 0x22, 0x7e, 0x96, 0x49,
  0xfa, 0x2d, 0x23, 0x23, 0xcc, 0xbb, 0x8e, 0xc7, 0xd5, 0x21, 0xbb, 0x1d,
  0xb6, 0xcf, 0xbf, 0x4d, 0xc6, 0x46, 0x9d, 0xf6, 0x28, 0xf7, 0x8c, 0x31,
  0xd4, 0x99, 0x42, 0x24, 0x53, 0xd2, 0x11, 0x27, 0x16, 0xf3, 0x1c, 0x0e,
  0xd3, 0x0b, 0x11, 0xb5, 0xbf, 0xe8, 0x29, 0x43, 0x2d, 0x31, 0x40, 0x68,
  0xba, 0xea, 0x46, 0xe6, 0x01, 0xd9, 0xac, 0xb8, 0xfc, 0xc3, 0x2a, 0x31,
  0xcd, 0x58, 0xd8, 0xd5, 0x2d, 0x07, 0xe7, 0x58, 0xce, 0x9a, 0x35, 0x25,
  0x28, 0xa1, 0x44, 0xf3, 0x48, 0x55, 0xe8, 0x0b, 0x28, 0xa8, 0xfe, 0xce,
  0xf1, 0xb1, 0x53, 0x7f, 0x45, 0x31, 0x05, 0x16, 0x51, 0xcd, 0x3e, 0x67,
  0xda, 0x3d, 0x1b, 0xc4, 0x25, 0xca, 0xf9, 0xe9, 0x33, 0x2a, 0x04, 0x63,
  0xce, 0x2c, 0xfa, 0x7c, 0x26, 0x21, 0x65, 0xe7, 0xeb, 0x0b, 0xe0, 0x09,
  0x65, 0xa8, 0xaf, 0xbc, 0xb7, 0xd9, 0xed, 0xc0, 0x38, 0x0e, 0x1b, 0xe4,
  0x4d, 0x2a, 0x3f, 0x8f, 0xad, 0xeb, 0x38, 0x99, 0xe4, 0x32, 0xca, 0x40,
  0xdf, 0x3e, 0xe2, 0x0e, 0x54, 0x25, 0x45, 0x1c, 0x23, 0x3b, 0xf9, 0x0b,
  0xf3, 0x1a, 0x81, 0xe4, 0xd9, 0x3e, 0x2b, 0x88, 0xd6, 0x94, 0x24, 0x49,
  0x32, 0xd1, 0x3f, 0x02, 0xc7, 0x23, 0x47, 0x1b, 0x1b, 0x5f, 0x1e, 0x23,
  0xd5, 0xa0, 0x67, 0xe1, 0xc0, 0xd8, 0x9b, 0x29, 0xe9, 0x39, 0x4b, 0xf2,
  0xf8, 0xf2, 0x0d, 0x7f, 0x07, 0x12, 0xf5, 0xe8, 0x68, 0xd3, 0xaa, 0xd0,
  0x60, 0x11, 0xcc, 0x47, 0x41, 0xf0, 0x0a, 0xf9, 0xb4, 0xfb, 0x2c, 0xdb,
  0xd9, 0x50, 0xeb, 0x06, 0xa2, 0x4c, 0xc6, 0x45, 0x16, 0xb6, 0x65, 0xe4,
  0x2f, 0x0e, 0xbf, 0x20, 0x03, 0x0c, 0xbf, 0x50, 0xcf, 0xde, 0xd1, 0x1c,
  0x50, 0x63, 0x76, 0x59, 0xab, 0x31, 0xfe, 0xd4, 0xf0, 0x30, 0xe8, 0x02,
  0xa8, 0xd4, 0x65, 0xcb, 0x54, 0xd4, 0xff, 0x0a, 0x44, 0x28, 0x45, 0xf9,
  0x6c, 0xb3, 0x93, 0x03, 0xdf, 0x05, 0x5e, 0xce, 0x21, 0x28, 0xae, 0x5b,
  0x06, 0x24, 0xf4, 0xd9, 0x70, 0x2a, 0xef, 0x64, 0x4e, 0x67, 0xce, 0x24,
  0xdd, 0xed, 0xe1, 0x35, 0x35, 0xde, 0x54, 0x01, 0x46, 0x18, 0x0d, 0xd1,
  0x60, 0xc1, 0x34, 0x7f, 0x4e, 0xab, 0xff, 0xa9, 0x5e, 0x2f, 0xf2, 0x11,
  0x60, 0x3e, 0x5f, 0xdd, 0x66, 0x40, 0x0c, 0x3d, 0xcf, 0x41, 0xfc, 0xd8,
  0x3b, 0x2b, 0x27, 0xdd, 0x2f, 0xfe, 0xfe, 0x13, 0x35, 0x11, 0xbe, 0xe4,
  0x60, 0x21, 0x5a, 0xf8, 0xb1, 0x70, 0x21, 0x32, 0x50, 0x40, 0x17, 0xb2,
  0xb4, 0x44, 0xac, 0xca, 0xb3, 0xdd, 0xd5, 0xe6, 0xbc, 0xce, 0xcd, 0xf0,
  0xbd, 0x3e, 0xc5, 0xf5, 0x14, 0xe4, 0xed, 0x57, 0x30, 0x1b, 0xe0, 0x1a,
  0xca, 0xdf, 0x1b, 0x58, 0xcc, 0x9c, 0x28, 0xec, 0x45, 0xc0, 0xac, 0xd5,
  0x35, 0x42, 0xab, 0x3d, 0x03, 0x22, 0x3e, 0xc2, 0xff, 0x14, 0x48, 0x50,
  0x1c, 0xc3, 0xde, 0x73, 0x35, 0xc4, 0xba, 0xc6, 0x43, 0x0c, 0x46, 0xfe,
  0xe0, 0x5c, 0xf9, 0x1f, 0x48, 0x2f, 0xf3, 0x72, 0x2e, 0x97, 0xbd, 0x81,
  0x12, 0xc9, 0xa4, 0x07, 0xf1, 0x54, 0x30, 0xc5, 0x6d, 0x0a, 0x64, 0x61,
  0xd4, 0x98, 0x04, 0xf1, 0xc3, 0x24, 0xd2, 0xdd, 0x19, 0x76, 0x0f, 0x7d,
  0x99, 0x2a, 0xca, 0x4d, 0x00, 0xf6, 0x32, 0x5d, 0xc0, 0x30, 0xc3, 0xc1,
  0x70, 0xb5, 0x27, 0x73, 0xe3, 0xf7, 0x3d, 0xc1, 0x1e, 0xbd, 0x0c, 0x4c,
  0xa0, 0x9c, 0xca, 0xf0, 0xe5, 0xe4, 0xe0, 0xec, 0x32, 0xe4, 0x30, 0xb9,
  0xea, 0xc3, 0xee, 0x68, 0xaa, 0x12, 0xb3, 0x1b, 0x30, 0xee, 0xa8, 0xc0,
  0x4e, 0x7f, 0x36, 0x1a, 0x48, 0xc0, 0x02, 0x70, 0xed, 0xab, 0xcc, 0x3f,
  0x39, 0xd1, 0x93, 0xdc, 0xf5, 0x14, 0x00, 0x51, 0x4c, 0xa7, 0x13, 0xd7,
  0xb8, 0xdb, 0x35, 0x29, 0x42, 0x4e, 0x1d, 0x4a, 0xe0, 0x03, 0x12, 0x38,
  0x25, 0x24, 0x2e, 0x31, 0xae, 0xdd, 0xfd, 0x28, 0x13, 0xa7, 0xe6, 0xd5,
  0xcf, 0x33, 0xfd, 0xf5, 0x0e, 0xbc, 0x7f, 0x4d, 0x16, 0x5f, 0x65, 0x04,
  0x68, 0xa1, 0xfa, 0xcd, 0x89, 0xd2, 0x99, 0x64, 0x66, 0xce, 0x5a, 0x37,
  0x67, 0xea, 0xf2, 0xba, 0x1a, 0xbf, 0x2e, 0xca, 0xdb, 0xec, 0x4f, 0xb5,
  0xae, 0x36, 0x7c, 0x90, 0x0f, 0x2c, 0x32, 0xa7, 0xcc, 0xa4, 0xd3, 0x3e,
  0xe5, 0xf7, 0xda, 0xf8, 0xb1, 0x60, 0x4e, 0xb3, 0x30, 0xd6, 0xbd, 0xb6,
  0xeb, 0x62, 0x56, 0xd1, 0xf3, 0xea, 0x28, 0x67, 0x8c, 0xae, 0xc4, 0x47,
  0x4f, 0xd7, 0x9e, 0x8d, 0xd3, 0xb3, 0x1a, 0x4d, 0x27, 0x48, 0xd1, 0x6d,
  0x81, 0x02, 0x93, 0xba, 0x36, 0xda, 0xa5, 0x37, 0x3a, 0xe8, 0xa6, 0xb0,
  0x19, 0xc1, 0xac, 0xe7, 0xe9, 0x36, 0x26, 0xc2, 0xca, 0x8c, 0xfc, 0xf5,
  0x87, 0x97, 0xfa, 0xb4, 0x4c, 0x3a, 0x11, 0xff, 0xe4, 0x6a, 0xac, 0xb4,
  0xe1, 0x1a, 0xaa, 0xc7, 0x17, 0x57, 0xd2, 0xee, 0x21, 0xd9, 0xc5, 0x59,
  0x36, 0xcf, 0xf7, 0xd0, 0x17, 0xc1, 0x7a, 0xe7, 0xe4, 0xb3, 0x61, 0x53,
  0x57, 0xa1, 0x5a, 0xc7, 0x96, 0x6b, 0xa7, 0xc1, 0x6b, 0x3e, 0x28, 0x2d,
  0x40, 0xad, 0x12, 0x31, 0xa8, 0x16, 0x63, 0x11, 0x07, 0x99, 0xc6, 0xf9,
  0x1d, 0x55, 0xb4, 0xcf, 0xdf, 0x9d, 0xda, 0xff, 0xfb, 0xe5, 0x2f, 0xea,
  0x31, 0x1e, 0xf5, 0x5a, 0xb9, 0xba, 0x67, 0x16, 0x47, 0xc8, 0xb8, 0xa1,
  0x2e, 0x1d, 0x5e, 0x08, 0x23, 0x23, 0xf7, 0x0b, 0x27, 0x6f, 0xf7, 0xae,
  0x63, 0x43, 0x60, 0x23, 0xc2, 0xc1, 0x12, 0x7f, 0x73, 0x60, 0xbf, 0x30,
  0xc0, 0xd4, 0x12, 0x61, 0x18, 0xa7, 0x11, 0x0f, 0xce, 0x3d, 0xcc, 0xee,
  0x2e, 0xcf, 0xed, 0x01, 0x5f, 0xb2, 0xd5, 0xae, 0xf6, 0x48, 0x9e, 0xc5,
  0xce, 0x62, 0x65, 0xa9, 0x7f, 0x9b, 0x9c, 0x3b, 0xd4, 0x0c, 0xab, 0x34,
  0x60, 0x47, 0x4c, 0xe9, 0xb0, 0x01, 0xb9, 0xca, 0x13, 0xce, 0x9b, 0x48,
  0x4d, 0x1f, 0xc5, 0x33, 0x15, 0xf4, 0xea, 0xdb, 0x9e, 0x0f, 0x23, 0xe5,
  0xba, 0x3a, 0x22, 0xca, 0xbd, 0xb1, 0x2d, 0x43, 0x9d, 0x31, 0xb7, 0x38,
  0x3e, 0xae, 0x2e, 0xa9, 0xdc, 0x8e, 0x9f, 0x6e, 0xe6, 0xed, 0xe8, 0xd3,
  0xcb, 0x0d, 0xfc, 0xd1, 0x53, 0x12, 0xb7, 0x53, 0xdd, 0xe5, 0xc5, 0x77,
  0x47, 0xa7, 0x25, 0x83, 0xb7, 0x44, 0x15, 0xd1, 0xdd, 0xe2, 0x6d, 0x17,
  0x5b, 0xff, 0x03, 0x0a, 0xdd, 0xf1, 0x99, 0x4a, 0xf9, 0xbc, 0xb9, 0x35,
  0xe1, 0xa4, 0x14, 0x0c, 0xf6, 0xe4, 0x17, 0x81, 0x4c, 0x32, 0xa5, 0xbd,
  0x63, 0x1f, 0xa6, 0xef, 0x99, 0x1b, 0xfd, 0x45, 0x6c, 0x6c, 0xe9, 0x8e,
  0x18, 0xfd, 0x9e, 0xa6, 0xfe, 0x39, 0xbd, 0x6b, 0x37, 0x6f, 0xf8, 0x2b,
  0xc6, 0x2b, 0x3d, 0x46, 0x0a, 0xc2, 0x02, 0x50, 0x40, 0xbd, 0xde, 0xc6,
  0x1f, 0x08, 0x33, 0x35, 0xb0, 0x39, 0xf8, 0x10, 0x32, 0x61, 0x0e, 0x5d,
  0x81, 0x20, 0x3a, 0xb6, 0xbf, 0x22, 0x4a, 0x14, 0xe5, 0x5c, 0x1d, 0xbc,
  0xcc, 0x78, 0xf9, 0x07, 0x0b, 0xe5, 0x29, 0x4e, 0x25, 0xc7, 0x5d, 0x56,
  0xb9, 0x63, 0xbb, 0x2d, 0x1f, 0xb7, 0x1b, 0xa7, 0x1b, 0x88, 0xe2, 0x24,
  0x13, 0x55, 0x07, 0x3f, 0x1f, 0xd0, 0x21, 0xcf, 0xa3, 0xbb, 0xfe, 0xca,
  0x2b, 0x27, 0xba, 0x68, 0x9e, 0x22, 0x91, 0xc9, 0x07, 0x58, 0xe1, 0x4b,
  0x7f, 0x47, 0xc7, 0x31, 0xa3, 0xe6, 0x57, 0xd4, 0x1b, 0x50, 0xcb, 0x25,
  0xa2, 0xed, 0xaa, 0xa3, 0x5c, 0x51, 0xd7, 0x21, 0x33, 0xba, 0xaa, 0xc6,
  0xec, 0xa3, 0xab, 0xe7, 0xcf, 0xd1, 0xba, 0xff, 0xfb, 0xd6, 0x58, 0xfd,
  0x34, 0xaa, 0x45, 0x03, 0xba, 0x37, 0xbb, 0xdc, 0xbe, 0x7c, 0x17, 0xfa,
  0x0d, 0xee, 0x40, 0xe9, 0xbe, 0x4c, 0xe9, 0x3d, 0x3c, 0x2f, 0xcf, 0x4b,
  0xd6, 0x3f, 0xcc, 0xf2, 0xef, 0xca, 0x52, 0x1d, 0x46, 0xc6, 0x30, 0xb0,
  0x02, 0xef, 0x35, 0x39, 0xcc, 0x0e, 0xcf, 0x32, 0xf7, 0x2d, 0xdc, 0xb5,
  0xc5, 0x5a, 0x31, 0xb7, 0x5e, 0x7f, 0xcb, 0xc9, 0x34, 0x1a, 0xdc, 0x2c,
  0x26, 0x21, 0xab, 0xee, 0x42, 0x4d, 0x66, 0xe7, 0x28, 0x6d, 0x13, 0x19,
  0xe1, 0x03, 0x85, 0x51, 0xe7, 0xe9, 0xd5, 0xf4, 0xa1, 0x38, 0x69, 0xb8,
  0xed, 0x11, 0x47, 0x1d, 0x88, 0xde, 0xde, 0xda, 0xc6, 0x26, 0x32, 0xc1,
  0x46, 0x01, 0xa2, 0xbf, 0x35, 0xf1, 0x20, 0x2d, 0xd0, 0xab, 0xc6, 0xfd,
  0xf8, 0xe6, 0xff, 0x84, 0x90, 0x54, 0x54, 0x25, 0x4b, 0x40, 0xcc, 0x0a,
  0xf2, 0xeb, 0xff, 0xff, 0x04, 0x00, 0x00, 0x00, 0x80, 0x00, 0x00, 0x00,
  0xdb, 0xfb, 0xff, 0xff, 0xcc, 0xfa, 0xff, 0xff, 0xb8, 0xf9, 0xff, 0xff,
  0xef, 0x00, 0x00, 0x00, 0x11, 0xfb, 0xff, 0xff, 0xff, 0xf9, 0xff, 0xff,
  0x25, 0xfd, 0xff, 0xff, 0xfe, 0x02, 0x00, 0x00, 0xc9, 0xfa, 0xff, 0xff,
  0x15, 0xfb, 0xff, 0xff, 0x37, 0xfb, 0xff, 0xff, 0x9e, 0x04, 0x00, 0x00,
  0x88, 0xfe, 0xff, 0xff, 0x63, 0xfc, 0xff, 0xff, 0x4c, 0xf9, 0xff, 0xff,
  0x30, 0x01, 0x00, 0x00, 0x79, 0xfd, 0xff, 0xff, 0x70, 0xfb, 0xff, 0xff,
  0xb1, 0xfa, 0xff, 0xff, 0xda, 0xfa, 0xff, 0xff, 0x78, 0xff, 0xff, 0xff,
  0x59, 0xfb, 0xff, 0xff, 0x0d, 0xfb, 0xff, 0xff, 0x07, 0x02, 0x00, 0x00,
  0x20, 0xfb, 0xff, 0xff, 0x1b, 0xfa, 0xff, 0xff, 0x8d, 0xf9, 0xff, 0xff,
  0x34, 0xfd, 0xff, 0xff, 0x28, 0xfa, 0xff, 0xff, 0x5d, 0xfa, 0xff, 0xff,
  0x57, 0xfc, 0xff, 0xff, 0xfe, 0x04, 0x00, 0x00, 0x7e, 0xec, 0xff, 0xff,
  0x04, 0x00, 0x00, 0x00, 0x20, 0x00, 0x00, 0x00, 0x49, 0x73, 0x78, 0x76,
  0x70, 0x3c, 0x79, 0x71, 0x5c, 0x7f, 0x62, 0x75, 0x6c, 0x65, 0x6f, 0x69,
  0x3f, 0x5f, 0x47, 0x73, 0x57, 0x26, 0x5d, 0x48, 0x5d, 0x72, 0x5d, 0x73,
  0x67, 0x4f, 0x6d, 0x63, 0xaa, 0xec, 0xff, 0xff, 0x04, 0x00, 0x00, 0x00,
  0x20, 0x00, 0x00, 0x00, 0xa7, 0xd7, 0x08, 0xff, 0xc8, 0x8b, 0x12, 0xb6,
  0xe8, 0x30, 0xdd, 0x0b, 0xd1, 0xf9, 0xf5, 0xb8, 0xad, 0xcf, 0xa4, 0xc9,
  0xbc, 0x80, 0xd2, 0x97, 0xba, 0xe9, 0xc9, 0x0c, 0x02, 0xb0, 0xbd, 0xd3,
  0xd6, 0xec, 0xff, 0xff, 0x04, 0x00, 0x00, 0x00, 0x00, 0x0c, 0x00, 0x00,
  0x58, 0xe1, 0x6e, 0x51, 0xb0, 0x4d, 0x46, 0x65, 0xed, 0xfc, 0x45, 0x9e,
  0x3c, 0x6e, 0xf1, 0x00, 0xa6, 0x5b, 0xbb, 0xcd, 0x56, 0xe4, 0x62, 0xb9,
  0x8a, 0xf5, 0x0b, 0x9d, 0xbb, 0xb5, 0xad, 0x62, 0x32, 0x24, 0x4f, 0x94,
  0xaf, 0x47, 0x07, 0x91, 0xef, 0xe9, 0x15, 0xa4, 0x46, 0x35, 0xd5, 0xbe,
  0x38, 0xca, 0xa1, 0xea, 0xd5, 0x28, 0x20, 0xc1, 0x0a, 0xd6, 0x95, 0xc0,
  0x58, 0x6e, 0x5b, 0xc0, 0xcc, 0x5d, 0xc3, 0x3d, 0x49, 0xf1, 0x43, 0x14,
  0xec, 0x2e, 0x56, 0x52, 0x45, 0x4b, 0xbe, 0xfa, 0x5d, 0xbf, 0xfe, 0x0e,
  0xb1, 0x81, 0xf1, 0x0a, 0xb0, 0xb9, 0xa7, 0xe7, 0x20, 0x97, 0xa7, 0x18,
  0x15, 0x34, 0xae, 0x16, 0x00, 0x14, 0x66, 0x63, 0xc7, 0x7f, 0xd2, 0x49,
  0x0a, 0xc3, 0x9c, 0xd9, 0xc3, 0xda, 0x20, 0x85, 0xe9, 0x40, 0xda, 0xda,
  0xc6, 0xb5, 0xe8, 0xb2, 0x44, 0x9e, 0x5f, 0x4d, 0xb4, 0x12, 0x47, 0x45,
  0xbd, 0x9d, 0x50, 0xca, 0xa0, 0x74, 0x45, 0xb4, 0x4d, 0xb8, 0x2b, 0xf1,
  0x62, 0x3f, 0x92, 0xfe, 0xd8, 0xda, 0xf4, 0x0d, 0xe6, 0xd7, 0xd0, 0x20,
  0x52, 0x14, 0xb2, 0xc0, 0xc0, 0x29, 0xe5, 0x66, 0x12, 0x49, 0xeb, 0x40,
  0x94, 0x05, 0x20, 0x70, 0x41, 0x34, 0xa4, 0x28, 0x5b, 0xba, 0x1c, 0xfa,
  0x2e, 0xb1, 0xe7, 0xd1, 0x13, 0xd5, 0x01, 0x2d, 0x6d, 0x36, 0x89, 0xf6,
  0x4b, 0x45, 0xbd, 0x14, 0xdf, 0xb2, 0xdb, 0xb1, 0x74, 0x87, 0xe4, 0xbb,
  0xfc, 0x5c, 0x4b, 0x2d, 0x72, 0x08, 0x6a, 0xdf, 0xc2, 0xf4, 0x34, 0x42,
  0x57, 0x29, 0x2f, 0x19, 0x54, 0xf2, 0xee, 0x66, 0x44, 0x78, 0x52, 0xd9,
  0xef, 0x68, 0xd1, 0x3d, 0x45, 0xb8, 0x13, 0xb2, 0x36, 0x18, 0x9d, 0x0f,
  0xd6, 0x6f, 0x39, 0xbb, 0x16, 0xff, 0xcb, 0x05, 0xbe, 0x7f, 0xb9, 0x04,
  0x62, 0x42, 0x45, 0x51, 0xf3, 0x23, 0x33, 0xa0, 0x69, 0x41, 0xa9, 0x31,
  0xff, 0x37, 0xbf, 0x66, 0xcf, 0x23, 0x5e, 0x76, 0x33, 0x7a, 0x1d, 0xfc,
  0xb9, 0x04, 0x20, 0x6c, 0x39, 0x6f, 0xb6, 0xe1, 0x61, 0xe6, 0x68, 0xe0,
  0xa3, 0x44, 0x1c, 0x39, 0xc6, 0x54, 0xb7, 0x28, 0xcb, 0xa2, 0x37, 0x44,
  0xd8, 0xa7, 0x5f, 0x53, 0x74, 0x35, 0x1c, 0x77, 0x98, 0xe5, 0xb4, 0xea,
  0x39, 0x71, 0x52, 0x59, 0x25, 0xe5, 0x31, 0xb9, 0x23, 0x04, 0x9d, 0x94,
  0xf6, 0x2d, 0xda, 0x19, 0x27, 0xd3, 0x98, 0xe9, 0x65, 0x2a, 0x48, 0x05,
  0x4e, 0x32, 0xb0, 0x0d, 0x74, 0x3a, 0x90, 0xcc, 0x71, 0xa7, 0x7f, 0xf4,
  0xa9, 0x5d, 0x25, 0x06, 0xac, 0x63, 0x97, 0xc1, 0xa7, 0xb6, 0xc9, 0xe6,
  0xf5, 0x49, 0xdf, 0x13, 0x6a, 0x52, 0xf2, 0x0d, 0x41, 0x6f, 0x7b, 0x98,
  0xc8, 0x1e, 0xc7, 0x77, 0x77, 0x03, 0xa6, 0x55, 0x5f, 0x45, 0x34, 0x5e,
  0x99, 0x23, 0xd0, 0x1c, 0xb9, 0x06, 0xd6, 0xcf, 0x51, 0x5f, 0xce, 0xb9,
  0x2c, 0x9c, 0xdd, 0xac, 0xf3, 0x4e, 0xb5, 0x9d, 0x04, 0x32, 0xaf, 0x49,
  0x8e, 0xaf, 0x3f, 0x49, 0x9c, 0xdf, 0x9e, 0x55, 0xda, 0x18, 0x36, 0x56,
  0xe9, 0xe1, 0xe9, 0xd1, 0x1c, 0x65, 0xfb, 0x1c, 0x1c, 0x15, 0xfd, 0x44,
  0xd5, 0xdd, 0xba, 0x89, 0xed, 0x0d, 0xcd, 0x3f, 0x0b, 0x81, 0xd2, 0x09,
  0x5d, 0xe9, 0xd6, 0x50, 0x9b, 0x6e, 0xb9, 0xf7, 0x92, 0x28, 0xbf, 0x47,
  0xa8, 0xbe, 0x41, 0x5e, 0x23, 0x33, 0xda, 0x9f, 0xf3, 0xf8, 0xc9, 0xd7,
  0x4a, 0xdc, 0xaf, 0x06, 0x96, 0x36, 0x2a, 0xc0, 0xef, 0xbb, 0xc7, 0x57,
  0x63, 0x7f, 0xd2, 0x29, 0x4d, 0x23, 0x12, 0x39, 0xe6, 0x85, 0x59, 0x48,
  0x23, 0x8e, 0x0c, 0x48, 0xf7, 0xd9, 0x5f, 0x10, 0xef, 0xf7, 0xb5, 0x5e,
  0xfb, 0x09, 0x36, 0xde, 0x5b, 0xe0, 0xfc, 0xdc, 0x12, 0x05, 0xcf, 0xe7,
  0x78, 0xe8, 0xa1, 0x54, 0x3e, 0x28, 0x27, 0xda, 0x07, 0xe4, 0xb8, 0xf4,
  0x12, 0xc2, 0x43, 0x44, 0xcf, 0xa4, 0xa1, 0xec, 0x23, 0xb5, 0xe1, 0xa0,
  0x27, 0x1b, 0xec, 0xd4, 0x29, 0x65, 0xd1, 0x56, 0xb6, 0xe1, 0x3a, 0x05,
  0x7b, 0x88, 0xce, 0xef, 0xfb, 0x55, 0xf2, 0x0f, 0xbb, 0xe3, 0x11, 0x70,
  0xf4, 0xe8, 0x39, 0x2b, 0x41, 0xbb, 0x6e, 0x61, 0xc0, 0xe5, 0xb8, 0xdf,
  0xa3, 0x12, 0xf2, 0xa9, 0x57, 0xfc, 0x57, 0xe3, 0x15, 0x2d, 0x36, 0xf0,
  0x27, 0xb1, 0x0d, 0xa0, 0x03, 0xef, 0x07, 0x24, 0xfe, 0xae, 0xfe, 0xa9,
  0x4a, 0xd5, 0x2d, 0xd2, 0xd4, 0x1f, 0x3f, 0xcb, 0x58, 0x3a, 0x68, 0xa7,
  0x13, 0x0b, 0x3d, 0xdf, 0x1e, 0x5c, 0x7f, 0x2d, 0x25, 0x30, 0xd3, 0xcf,
  0x41, 0xc3, 0xfd, 0xbf, 0x9f, 0x1e, 0xd2, 0x02, 0x35, 0x1b, 0xbb, 0x9a,
  0xb6, 0xd1, 0xff, 0x1b, 0xe6, 0x9b, 0xc8, 0xac, 0x5d, 0xb2, 0xe4, 0x38,
  0x47, 0x5b, 0x66, 0xf2, 0x26, 0xdd, 0xd9, 0xec, 0xc4, 0xaf, 0xf7, 0xd4,
  0xea, 0x36, 0x78, 0xaf, 0xcd, 0xed, 0xd1, 0xf8, 0x16, 0x0f, 0xc6, 0x45,
  0x28, 0xd3, 0xbc, 0x4c, 0x5d, 0x1b, 0x5a, 0xd9, 0x24, 0xcb, 0xfc, 0x21,
  0xe3, 0x3d, 0x0b, 0x1b, 0x0c, 0x45, 0x6a, 0x73, 0x65, 0xea, 0xda, 0xa5,
  0x27, 0x09, 0x55, 0xb2, 0xc6, 0x42, 0x19, 0x20, 0x68, 0xba, 0xc5, 0x4b,
  0x12, 0xa4, 0xd2, 0x30, 0x05, 0xfb, 0xff, 0x63, 0xf0, 0xa4, 0x09, 0x4b,
  0x7f, 0x61, 0xab, 0x4a, 0x69, 0x6e, 0x54, 0x4d, 0xec, 0x39, 0x11, 0x04,
  0xbf, 0x7c, 0xfb, 0xfa, 0xd8, 0x1a, 0xa6, 0xa6, 0x3e, 0x0d, 0xc7, 0xb0,
  0xfa, 0x2c, 0xc2, 0x3c, 0xb1, 0xeb, 0xdb, 0xbb, 0x1a, 0x69, 0xf9, 0xd5,
  0x49, 0xdd, 0xe1, 0x16, 0x06, 0x02, 0x2b, 0xae, 0x5c, 0x33, 0xc7, 0xd1,
  0xf6, 0x09, 0x8a, 0xaf, 0xb6, 0x97, 0x20, 0x9b, 0x43, 0x23, 0x21, 0x34,
  0xbe, 0xf3, 0xcf, 0xeb, 0x7c, 0xf7, 0x10, 0x32, 0x26, 0xed, 0x93, 0xf5,
  0xfe, 0x29, 0x56, 0xda, 0x65, 0xd0, 0xb7, 0xaa, 0xc1, 0x5d, 0xde, 0x56,
  0xb5, 0x42, 0x59, 0x96, 0x28, 0x4a, 0x30, 0xda, 0xfc, 0xe2, 0xa5, 0xf3,
  0xc7, 0x7f, 0x39, 0x1b, 0x47, 0x62, 0xd2, 0x4d, 0xec, 0xec, 0x0a, 0x29,
  0x2d, 0x14, 0xd5, 0x47, 0x62, 0x23, 0x36, 0xd1, 0x09, 0x09, 0x32, 0xd9,
  0xd6, 0xeb, 0x01, 0x09, 0xbb, 0x7c, 0xd8, 0x02, 0xf3, 0x3e, 0x04, 0x0f,
  0x27, 0x18, 0x3d, 0xc0, 0x46, 0x59, 0x97, 0xcd, 0x5e, 0x11, 0x0a, 0xe5,
  0xaf, 0x9c, 0x04, 0xf4, 0xb5, 0x66, 0x17, 0xb5, 0x1f, 0x04, 0x48, 0xe4,
  0x03, 0xf4, 0x38, 0x3f, 0x40, 0x24, 0x18, 0x5b, 0xa6, 0xbd, 0xf6, 0xd1,
  0x33, 0x53, 0x22, 0xb7, 0x32, 0x51, 0xda, 0xda, 0x17, 0x2e, 0xb4, 0x23,
  0xe8, 0xde, 0xce, 0x47, 0x32, 0x96, 0x69, 0x19, 0x94, 0xf5, 0x58, 0x34,
  0xd5, 0xb7, 0x45, 0x6a, 0x52, 0x26, 0x48, 0xa5, 0x36, 0x3d, 0x72, 0x58,
  0xbe, 0x6a, 0xc8, 0xb9, 0x2f, 0xcb, 0x9b, 0x59, 0xfa, 0x35, 0x40, 0xa7,
  0xf9, 0xe3, 0x19, 0xd4, 0x9d, 0x94, 0x41, 0xbc, 0xde, 0x25, 0x07, 0x7f,
  0x73, 0xdf, 0xfe, 0xf0, 0xaf, 0x5a, 0x5e, 0x1c, 0xc1, 0x46, 0x25, 0x31,
  0x55, 0xb9, 0x23, 0xd4, 0x2c, 0xa3, 0x2f, 0x3b, 0xc4, 0x19, 0xf8, 0x94,
  0x6a, 0xf3, 0x65, 0x4b, 0x56, 0x0a, 0xb0, 0x9e, 0xea, 0xac, 0x2e, 0x0b,
  0xa2, 0x3a, 0x54, 0xc7, 0xea, 0xeb, 0xa0, 0x0a, 0x37, 0x76, 0x98, 0xd8,
  0x3f, 0xfc, 0x52, 0x4b, 0x1e, 0xcc, 0xba, 0xe8, 0x32, 0xf6, 0x51, 0xe7,
  0xf9, 0xd5, 0x5f, 0x16, 0xf4, 0x7c, 0x7f, 0x6e, 0x07, 0x0a, 0x5b, 0xd6,
  0xed, 0x47, 0x49, 0x9e, 0x05, 0x55, 0x6a, 0x04, 0x39, 0x37, 0x59, 0xe3,
  0xfb, 0x55, 0xa2, 0x3f, 0xcf, 0x6e, 0xf4, 0x10, 0x10, 0x1b, 0x19, 0xf2,
  0x30, 0x5a, 0xc1, 0xe7, 0xea, 0xff, 0xe5, 0x49, 0x16, 0x42, 0x07, 0x24,
  0x34, 0xfa, 0xb1, 0xa6, 0xb2, 0x84, 0x56, 0xb2, 0x36, 0x1e, 0x07, 0x76,
  0x21, 0xaa, 0x0d, 0xa2, 0x3a, 0xba, 0x74, 0xfc, 0x1b, 0x71, 0x20, 0xc2,
  0x75, 0x18, 0xf1, 0x7d, 0xb9, 0x81, 0x96, 0x4b, 0x3b, 0x94, 0x4a, 0x31,
  0xa1, 0xbd, 0xc2, 0xa7, 0x45, 0x57, 0x3e, 0x64, 0x8a, 0xd2, 0x5a, 0x32,
  0x5d, 0xd4, 0xb7, 0x39, 0xe9, 0x41, 0xd0, 0xa5, 0x37, 0x3d, 0x2c, 0x44,
  0x54, 0x9e, 0xb2, 0x18, 0x87, 0xcc, 0x2c, 0x10, 0x88, 0xba, 0x6d, 0xf6,
  0x7a, 0xc7, 0x58, 0x7f, 0x9c, 0x23, 0xec, 0xfc, 0x1b, 0xe2, 0x19, 0xba,
  0xda, 0xdd, 0xd8, 0x0f, 0x65, 0x91, 0x47, 0x75, 0x52, 0x49, 0x43, 0x98,
  0xe8, 0x1b, 0x1f, 0x10, 0x4c, 0xbd, 0x34, 0x81, 0x09, 0x09, 0x1c, 0xcf,
  0x6a, 0xb0, 0xbe, 0xf6, 0xe6, 0x29, 0x46, 0xcd, 0x41, 0xbe, 0xee, 0x1a,
  0xb9, 0x23, 0x0b, 0x1e, 0xfa, 0x4c, 0xaa, 0x45, 0x19, 0x3b, 0x0d, 0x4b,
  0xc5, 0x3b, 0xc4, 0x8c, 0x32, 0xcc, 0x1b, 0x8f, 0x05, 0x57, 0x3d, 0x3a,
  0x9e, 0xd8, 0x49, 0x22, 0x47, 0x3c, 0x4e, 0x49, 0xad, 0x4b, 0x19, 0xab,
  0x08, 0xd3, 0xf1, 0x13, 0x2d, 0x17, 0xb7, 0x01, 0xbf, 0xc3, 0xc0, 0x02,
  0xc1, 0x0e, 0x0f, 0x23, 0x18, 0x10, 0x57, 0xca, 0x1f, 0x00, 0x26, 0xae,
  0xa2, 0x2c, 0x53, 0xe7, 0xa6, 0xbe, 0x3b, 0x5a, 0x9f, 0x4e, 0xce, 0x13,
  0x0a, 0xfa, 0xae, 0x0b, 0xcd, 0xb1, 0x10, 0xd8, 0x45, 0x9b, 0xf8, 0x22,
  0x02, 0xbd, 0xb9, 0xab, 0xbe, 0x1e, 0x67, 0x36, 0x57, 0x35, 0x60, 0xde,
  0xeb, 0x98, 0xcf, 0xd6, 0xb3, 0x77, 0x8b, 0x2e, 0x23, 0xfc, 0x7f, 0xb3,
  0x33, 0x51, 0xa2, 0x85, 0xe6, 0xe4, 0x41, 0x2f, 0x4d, 0x29, 0xcb, 0x0c,
  0xec, 0xec, 0x1d, 0x15, 0xf0, 0xf7, 0x2d, 0x01, 0x0f, 0x3f, 0xdb, 0x6f,
  0x28, 0x2e, 0xe7, 0x63, 0xe9, 0x1e, 0x64, 0xf2, 0x00, 0xe5, 0xa8, 0x99,
  0x63, 0xd1, 0x23, 0xc5, 0x4c, 0x67, 0xcf, 0x5a, 0x57, 0x3d, 0x41, 0xc3,
  0x05, 0xc5, 0x40, 0x31, 0xaa, 0x6b, 0xbd, 0x13, 0x4f, 0xfb, 0x2b, 0x32,
  0x72, 0xf4, 0x29, 0x13, 0x39, 0x5d, 0xae, 0xac, 0x42, 0xe9, 0x3e, 0x9e,
  0x16, 0x4a, 0x4f, 0x52, 0x52, 0x6b, 0x28, 0xe2, 0x36, 0x00, 0xe7, 0xeb,
  0x1a, 0xc4, 0x4b, 0x92, 0x13, 0x5e, 0x33, 0xf8, 0x3c, 0x59, 0x3f, 0xc3,
  0xda, 0x2e, 0x09, 0x29, 0x5b, 0xeb, 0xc8, 0x0e, 0x5b, 0xe4, 0x13, 0xd9,
  0x45, 0xfc, 0x14, 0xd9, 0x3e, 0x26, 0x6f, 0xdd, 0x15, 0x7f, 0x23, 0x9b,
  0x0c, 0xef, 0x5d, 0xfd, 0x5b, 0x38, 0xe8, 0xcd, 0x52, 0x25, 0x28, 0x1f,
  0x31, 0xc0, 0x66, 0xc1, 0xe3, 0x3b, 0x2a, 0xbb, 0xba, 0x79, 0x38, 0xbe,
  0xe7, 0x61, 0x21, 0x0d, 0x2c, 0x70, 0xf9, 0x8a, 0xb0, 0x3e, 0xcd, 0xb9,
  0x6e, 0xe3, 0xc6, 0x9f, 0xed, 0xac, 0xae, 0x3a, 0x00, 0x25, 0xd8, 0xf9,
  0x3c, 0xa8, 0xa1, 0xb8, 0xb4, 0xd1, 0x07, 0x7f, 0xd5, 0x7b, 0x5a, 0x7e,
  0x03, 0x1a, 0x02, 0xf8, 0xec, 0x60, 0xd9, 0xf0, 0xa9, 0x6e, 0x14, 0xc2,
  0x1f, 0x00, 0x3f, 0xb6, 0xe8, 0xef, 0x08, 0xaf, 0x04, 0xf5, 0x51, 0x4b,
  0x03, 0x70, 0xcc, 0x41, 0xe0, 0x0e, 0xad, 0x18, 0x00, 0x6e, 0xd2, 0xb2,
  0xdb, 0x63, 0xd5, 0xbf, 0xb4, 0xb3, 0xf1, 0x7a, 0xe4, 0xe4, 0x3b, 0xca,
  0xe0, 0xa9, 0x09, 0x4d, 0xed, 0x5a, 0x02, 0x40, 0x2d, 0x20, 0xd4, 0x6f,
  0x11, 0xd3, 0x20, 0xe7, 0xb2, 0xfb, 0xc9, 0x35, 0xb1, 0xfa, 0x4c, 0xb6,
  0x69, 0x11, 0x2c, 0x51, 0x25, 0x21, 0x16, 0xdc, 0x49, 0x2b, 0x41, 0x27,
  0x38, 0xa7, 0x7f, 0x90, 0xd1, 0xf3, 0x77, 0xe8, 0x21, 0x17, 0xf1, 0x06,
  0x16, 0xdd, 0x08, 0xb1, 0x02, 0xe6, 0x4b, 0xf7, 0x31, 0x27, 0x17, 0x88,
  0xc1, 0x70, 0xde, 0x94, 0xde, 0x3c, 0x42, 0x24, 0xee, 0x4a, 0xc5, 0xb2,
  0xd9, 0xb7, 0x72, 0x55, 0xde, 0x28, 0xbc, 0x69, 0x05, 0xc9, 0x47, 0xf1,
  0x3b, 0x28, 0xfe, 0x29, 0x31, 0x9f, 0x16, 0xce, 0xda, 0xd0, 0x3b, 0x25,
  0xb3, 0x14, 0x60, 0xe5, 0xdd, 0x8d, 0x73, 0x81, 0x24, 0xf2, 0xbe, 0x37,
  0xb4, 0x45, 0x3c, 0x2a, 0x4f, 0xc0, 0x41, 0xa6, 0xb0, 0xb2, 0xcb, 0x42,
  0xd2, 0xf1, 0x78, 0xc4, 0x79, 0x9e, 0x5c, 0xde, 0x0a, 0xd3, 0x3b, 0xd3,
  0x51, 0x46, 0xb2, 0x19, 0x95, 0xe3, 0x1e, 0xc3, 0x2d, 0x40, 0x55, 0xc9,
  0xf9, 0xb8, 0x57, 0xf5, 0xf3, 0x2e, 0x29, 0x40, 0x9e, 0xec, 0xe4, 0x8f,
  0xfd, 0xc3, 0x51, 0xc8, 0x28, 0x2a, 0xe8, 0x2b, 0x3a, 0xe4, 0x7c, 0x0c,
  0x9b, 0x9c, 0xaa, 0x18, 0xa6, 0xf6, 0x17, 0x61, 0xee, 0xdc, 0x55, 0x8e,
  0x18, 0x16, 0x9d, 0xa4, 0x1d, 0x27, 0x34, 0x3a, 0x35, 0x34, 0xde, 0xa5,
  0xf6, 0x10, 0x2e, 0xfd, 0x01, 0x08, 0x0a, 0x6c, 0xcf, 0x0f, 0xfe, 0x81,
  0x96, 0x00, 0xf6, 0xbc, 0xed, 0x4a, 0xf3, 0xc3, 0x45, 0x46, 0x86, 0x9d,
  0x51, 0xb0, 0x4a, 0xbe, 0xa1, 0x4c, 0x29, 0x6e, 0x5b, 0xf2, 0xed, 0x1a,
  0xf4, 0xe3, 0x70, 0xe9, 0xc0, 0x4e, 0x2c, 0xc7, 0x48, 0x0d, 0x15, 0x3d,
  0x75, 0x2b, 0x36, 0xfd, 0x0a, 0x0e, 0xfe, 0x03, 0x15, 0x04, 0xaa, 0xc4,
  0xb2, 0xa6, 0x2d, 0x2b, 0x22, 0x34, 0x24, 0x57, 0xe7, 0x2c, 0x7f, 0x07,
  0xb9, 0x6d, 0xb9, 0xe0, 0x02, 0x26, 0xf6, 0x76, 0x5f, 0xea, 0x2a, 0xd8,
  0x6e, 0x2a, 0xee, 0xf8, 0x2a, 0xb3, 0xff, 0xdf, 0x4e, 0xd1, 0xed, 0x9c,
  0x43, 0xe0, 0x98, 0xed, 0xb4, 0xfd, 0xde, 0xe0, 0xe5, 0x3f, 0x0c, 0x1b,
  0x4c, 0xd0, 0xab, 0x5e, 0x5a, 0xad, 0xee, 0xbe, 0x72, 0x1a, 0xcb, 0x3c,
  0xcc, 0xce, 0xe7, 0x44, 0x39, 0x09, 0xd5, 0xb1, 0x7a, 0x2d, 0x4b, 0xed,
  0xbe, 0x52, 0x56, 0x52, 0x57, 0x5b, 0x0d, 0xb8, 0x3c, 0x51, 0x84, 0xcf,
  0x17, 0x1d, 0x44, 0xad, 0x07, 0x3a, 0x32, 0x33, 0x84, 0x04, 0xc5, 0x76,
  0x2e, 0x96, 0xf1, 0x15, 0x91, 0x31, 0xe0, 0xcc, 0x63, 0x81, 0x1d, 0xc9,
  0x8e, 0xde, 0x9b, 0x55, 0xdb, 0x92, 0xa1, 0xef, 0x10, 0xb6, 0xf6, 0xd1,
  0x12, 0x85, 0xc0, 0x4f, 0xc6, 0x49, 0xa9, 0x38, 0xc8, 0x99, 0x57, 0x6e,
  0x43, 0x03, 0xf1, 0xef, 0x5e, 0x47, 0x12, 0x5a, 0x53, 0x62, 0x98, 0x35,
  0x1d, 0xc6, 0x1f, 0x8d, 0x9b, 0xfb, 0xfd, 0x1d, 0xd3, 0xe1, 0xfa, 0xfb,
  0x2f, 0xf8, 0x19, 0x46, 0xb8, 0x3e, 0x12, 0x43, 0x3b, 0xc1, 0x11, 0x50,
  0x26, 0x34, 0x76, 0xf0, 0x53, 0x92, 0x25, 0x7f, 0xee, 0xd1, 0xc6, 0x4f,
  0x37, 0x4c, 0x2e, 0x94, 0x3f, 0xd0, 0x51, 0xa3, 0xfa, 0xdf, 0x08, 0xff,
  0x0b, 0xac, 0x36, 0x2a, 0x12, 0x53, 0x43, 0xc1, 0xdc, 0xd0, 0xf0, 0xef,
  0x2f, 0x9b, 0xd7, 0x22, 0x28, 0xe2, 0x69, 0xbd, 0x18, 0xe2, 0x3f, 0x67,
  0x34, 0xc7, 0x57, 0x9b, 0xf7, 0xde, 0x5f, 0xea, 0x42, 0x5e, 0x5b, 0xba,
  0xa9, 0x2a, 0x20, 0xbb, 0x97, 0x39, 0x07, 0xcc, 0xe6, 0xf4, 0x95, 0x6e,
  0x07, 0x76, 0x24, 0xba, 0x5e, 0xa4, 0xcb, 0x5b, 0xbb, 0xbe, 0x5a, 0x0b,
  0x31, 0x24, 0xf9, 0x68, 0xf0, 0x11, 0x17, 0xf0, 0x38, 0x05, 0x1f, 0x47,
  0x1b, 0x15, 0xca, 0x94, 0xa0, 0x01, 0xe8, 0xc2, 0x6b, 0xf9, 0x17, 0x38,
  0x8e, 0xe4, 0x81, 0x76, 0xc9, 0xf9, 0x12, 0x5b, 0x40, 0x58, 0x50, 0x6d,
  0x93, 0xa1, 0x97, 0x22, 0x2e, 0x4b, 0xb6, 0x57, 0xec, 0x53, 0x21, 0xe0,
  0x22, 0xec, 0xee, 0xa3, 0x45, 0x18, 0xaa, 0x4b, 0x19, 0xaf, 0xd0, 0x2e,
  0x2f, 0xb1, 0xce, 0x11, 0x25, 0x67, 0xea, 0x72, 0xd8, 0xf7, 0x9d, 0x0a,
  0xc5, 0x23, 0xb8, 0x65, 0xab, 0x55, 0x2b, 0xeb, 0xbd, 0xcf, 0xb4, 0xb6,
  0x03, 0x2b, 0xfc, 0x27, 0xe1, 0x85, 0xb7, 0x7a, 0x5a, 0xae, 0xba, 0x39,
  0x26, 0x92, 0x24, 0x1d, 0xc0, 0xcd, 0x6a, 0xa1, 0x5f, 0x38, 0xdb, 0xe9,
  0x04, 0x5d, 0xc0, 0x30, 0xba, 0xf8, 0xe7, 0x9a, 0x91, 0xb3, 0xcb, 0xb8,
  0x4e, 0x32, 0x9e, 0xf0, 0x20, 0xe9, 0x14, 0xdc, 0x26, 0xc8, 0x6e, 0xf3,
  0x03, 0xf9, 0x4f, 0x1f, 0xf3, 0x44, 0xc3, 0xfb, 0x53, 0x1a, 0xdb, 0x29,
  0x9f, 0x07, 0x23, 0xb9, 0x0e, 0xdc, 0x24, 0x2b, 0x30, 0x8b, 0x22, 0x75,
  0xae, 0x83, 0xff, 0xbf, 0xe8, 0xe6, 0x22, 0xb3, 0x23, 0xba, 0x7f, 0x93,
  0x57, 0x32, 0x2b, 0x74, 0xcb, 0x19, 0x02, 0x0a, 0xa4, 0x42, 0x40, 0x1e,
  0xe5, 0x2d, 0x23, 0x30, 0xe3, 0x0f, 0x49, 0x2f, 0x45, 0x3c, 0xa1, 0x3c,
  0xf8, 0x26, 0xac, 0xc6, 0x0a, 0x68, 0x29, 0x0d, 0x74, 0x40, 0xdf, 0xef,
  0x5c, 0xe4, 0xb9, 0xaa, 0xf8, 0x73, 0x19, 0xb7, 0x50, 0xdc, 0x23, 0xbb,
  0xd6, 0x2f, 0xb3, 0xbb, 0xc1, 0x63, 0x31, 0x70, 0x46, 0xd9, 0x43, 0x90,
  0xe6, 0xde, 0x51, 0x0c, 0x44, 0x38, 0x6d, 0x9a, 0x51, 0x2e, 0xaa, 0x2e,
  0xf4, 0x01, 0x07, 0xc4, 0x53, 0x72, 0x7e, 0xdd, 0xb9, 0x2e, 0x52, 0xab,
  0x4e, 0xdc, 0x7f, 0x69, 0xea, 0x50, 0x05, 0x92, 0x18, 0x15, 0x07, 0xa2,
  0xf4, 0x90, 0x71, 0x37, 0x75, 0x3e, 0x2f, 0x6a, 0x5f, 0x02, 0x09, 0x3a,
  0x26, 0x31, 0x55, 0x32, 0x3a, 0x46, 0x29, 0x3b, 0xfd, 0x10, 0x62, 0xff,
  0x4f, 0x03, 0xc3, 0x96, 0x92, 0xfe, 0x31, 0x25, 0xe8, 0x55, 0xdb, 0xc5,
  0x9b, 0xb9, 0xb9, 0x14, 0x06, 0x31, 0xfc, 0xe4, 0x53, 0xcd, 0x1c, 0x0f,
  0x34, 0xce, 0x72, 0x96, 0x4c, 0x00, 0xef, 0xc2, 0xf7, 0xf0, 0xc7, 0x0f,
  0x46, 0xea, 0xed, 0xbc, 0xd0, 0xe6, 0x04, 0xd0, 0xdc, 0x53, 0xfe, 0x31,
  0x11, 0x2a, 0x68, 0xf9, 0x45, 0xde, 0x10, 0x40, 0xf1, 0xa0, 0xb7, 0x71,
  0x3b, 0x7f, 0xae, 0xe4, 0xf8, 0xff, 0xa4, 0xaf, 0x1b, 0xe8, 0x27, 0xd2,
  0x42, 0xad, 0x15, 0x2d, 0xd2, 0x35, 0x0f, 0x25, 0xf8, 0x17, 0x22, 0xea,
  0x0d, 0x2b, 0xf0, 0x2b, 0x58, 0xb1, 0x29, 0x70, 0xac, 0xe8, 0x95, 0xaf,
  0xdb, 0xc2, 0x5e, 0xec, 0x22, 0x4c, 0xff, 0x5a, 0x3a, 0x1c, 0xab, 0xb7,
  0xeb, 0x62, 0xdd, 0xf7, 0x55, 0xd0, 0x0c, 0x12, 0x89, 0xb1, 0xc5, 0xe5,
  0x1f, 0xb4, 0x48, 0xfd, 0x25, 0xd2, 0xf0, 0xdd, 0x0f, 0x19, 0x40, 0x8d,
  0x22, 0xda, 0x43, 0x2b, 0xa0, 0xc3, 0xd8, 0x56, 0x0c, 0x1c, 0xac, 0xb2,
  0x59, 0xb8, 0xf5, 0x01, 0xc9, 0xb8, 0xfe, 0xe6, 0xea, 0x87, 0x0f, 0xd4,
  0x13, 0xd2, 0x0a, 0xa3, 0x4f, 0xdf, 0xc9, 0x4a, 0xaf, 0x29, 0x1a, 0x09,
  0x9f, 0x2d, 0x81, 0x1d, 0xbb, 0x41, 0xd3, 0xd8, 0xfb, 0x4a, 0x13, 0xae,
  0x33, 0xe8, 0xb3, 0x1d, 0x35, 0xf9, 0xba, 0x68, 0xbf, 0x19, 0x01, 0xd4,
  0xc5, 0x8c, 0x5c, 0x2a, 0x38, 0x75, 0x0b, 0xff, 0x13, 0xd7, 0xf6, 0xd3,
  0x56, 0xb3, 0x0a, 0x04, 0xe5, 0xea, 0x5d, 0xf9, 0x54, 0x2f, 0x73, 0xe4,
  0x5e, 0xbb, 0x10, 0x22, 0xa8, 0x09, 0x01, 0x76, 0x55, 0xa6, 0xb6, 0x21,
  0x6e, 0xfb, 0x15, 0x81, 0x60, 0x0c, 0x67, 0xbd, 0x3d, 0x12, 0xe2, 0x30,
  0x75, 0xa2, 0xcd, 0x13, 0xdc, 0x05, 0x34, 0xff, 0x1e, 0xc7, 0x14, 0xf5,
  0xc2, 0x6e, 0xce, 0x28, 0x3a, 0x36, 0x11, 0x90, 0xe2, 0x30, 0xf0, 0x07,
  0x06, 0xb1, 0xe2, 0x0a, 0xf3, 0x93, 0x4e, 0x35, 0x2f, 0x49, 0xe8, 0x2f,
  0xdb, 0x1d, 0xc0, 0xa3, 0x0c, 0xc3, 0x54, 0x0b, 0x13, 0x55, 0x47, 0xb1,
  0x16, 0x95, 0x71, 0xba, 0x42, 0x18, 0xdb, 0xc9, 0xf3, 0x6d, 0x6b, 0xbd,
  0xe7, 0xce, 0x70, 0x92, 0x28, 0xc9, 0xf2, 0xd2, 0x7f, 0x0c, 0x39, 0x34,
  0x36, 0xfe, 0x3d, 0x09, 0xba, 0xe6, 0xd6, 0xb0, 0x72, 0x08, 0x44, 0x1f,
  0xeb, 0x49, 0xeb, 0xa2, 0xf0, 0xd5, 0xe9, 0xe1, 0xff, 0x19, 0x6c, 0xe1,
  0xe5, 0x16, 0x44, 0xec, 0xda, 0xeb, 0x28, 0xa4, 0xeb, 0xc0, 0x73, 0xdf,
  0x36, 0x4f, 0x65, 0xf6, 0x65, 0xef, 0xea, 0xd6, 0xc1, 0x6e, 0x6f, 0x3e,
  0x42, 0xca, 0x68, 0xf1, 0xa2, 0xb9, 0x58, 0xb8, 0xf7, 0xab, 0xde, 0x75,
  0xbb, 0x34, 0x47, 0xeb, 0x32, 0x45, 0x65, 0x1e, 0x24, 0xcb, 0xc7, 0xb7,
  0x20, 0x2c, 0xb4, 0xab, 0x47, 0x25, 0x2d, 0x31, 0xe5, 0x92, 0xc0, 0xb4,
  0x30, 0x4d, 0xd1, 0xeb, 0x1e, 0xe3, 0x10, 0x8e, 0xf9, 0x0f, 0x3c, 0x71,
  0x11, 0xc4, 0xc7, 0x1b, 0x95, 0x0b, 0xf9, 0xa0, 0x46, 0x47, 0x4b, 0x3c,
  0xc4, 0x23, 0x10, 0xdb, 0xf6, 0xd5, 0xe6, 0x69, 0x12, 0xe7, 0xcd, 0x71,
  0xab, 0xf1, 0xc0, 0xab, 0xcd, 0x0a, 0x15, 0x8f, 0x26, 0xe9, 0x59, 0xda,
  0x67, 0xea, 0x12, 0x5d, 0x47, 0x71, 0xd3, 0xe1, 0x1a, 0xcc, 0x81, 0xe3,
  0xd2, 0xee, 0xe9, 0xec, 0x35, 0xf0, 0x46, 0x20, 0x20, 0xde, 0x4f, 0x07,
  0x9f, 0x5c, 0xd2, 0x42, 0xe2, 0x68, 0x07, 0xf3, 0x40, 0x9d, 0xf1, 0x23,
  0x56, 0x81, 0x9f, 0x71, 0x38, 0x12, 0x01, 0x58, 0x00, 0x4f, 0xf6, 0x1b,
  0xde, 0xd5, 0xea, 0xd2, 0x48, 0xba, 0xcc, 0x15, 0x0b, 0xf0, 0xa6, 0x1d,
  0xce, 0x00, 0xde, 0xff, 0x27, 0x03, 0x06, 0x26, 0xe9, 0xbb, 0xbf, 0xbf,
  0x45, 0x2a, 0x33, 0xfa, 0x58, 0x6d, 0xf1, 0xea, 0x05, 0xe8, 0xf8, 0x48,
  0xf8, 0xe6, 0xf3, 0xcc, 0x68, 0xf9, 0x35, 0x42, 0xf5, 0x03, 0xe2, 0x61,
  0x19, 0xfd, 0x31, 0xc2, 0xa2, 0xd7, 0x39, 0xeb, 0xec, 0xe3, 0x5a, 0x8f,
  0xfd, 0xb5, 0xff, 0x52, 0xca, 0x33, 0xe2, 0x59, 0x18, 0xce, 0xcf, 0x32,
  0xf7, 0x1e, 0xd9, 0xc4, 0x3d, 0xf0, 0x3c, 0xd0, 0xb1, 0xa0, 0xb4, 0xc4,
  0x2b, 0xce, 0x2b, 0x47, 0x3f, 0x6b, 0x5b, 0x3d, 0x6b, 0xde, 0x7f, 0x06,
  0xad, 0x85, 0xd8, 0x2f, 0xaf, 0xf6, 0xfc, 0x6a, 0x5a, 0x47, 0xd8, 0xf0,
  0x74, 0xe2, 0xe2, 0x4c, 0x20, 0x02, 0x43, 0xa8, 0x71, 0x8b, 0x58, 0xef,
  0x0c, 0xac, 0xdf, 0x28, 0x12, 0x62, 0xfe, 0x17, 0x08, 0x9c, 0x1b, 0x1b,
  0x14, 0xb6, 0x0d, 0x1a, 0x17, 0x1f, 0x5e, 0x3a, 0xf7, 0x2d, 0x1b, 0xa3,
  0xf7, 0xb2, 0xe9, 0xd2, 0xfe, 0xd6, 0x21, 0x97, 0xc7, 0xfa, 0x40, 0x08,
  0x73, 0x0a, 0x43, 0xb1, 0x98, 0xfe, 0xcf, 0xb9, 0x5d, 0x27, 0xd5, 0x68,
  0xb0, 0x18, 0x34, 0xd3, 0xe9, 0xf5, 0xa6, 0xcc, 0x00, 0x4f, 0xd7, 0xe4,
  0xb4, 0xca, 0x18, 0x76, 0x3b, 0xff, 0xef, 0x12, 0x1d, 0x0b, 0xfb, 0xb5,
  0x3b, 0x65, 0x34, 0x9d, 0x75, 0xc0, 0x1f, 0x33, 0x68, 0x6d, 0x81, 0xb9,
  0x42, 0xd5, 0x01, 0x23, 0xc8, 0xf2, 0x0b, 0x8f, 0x59, 0xbb, 0xb4, 0x4a,
  0xab, 0xe0, 0x20, 0x45, 0x64, 0x71, 0xff, 0x4c, 0xdd, 0xc8, 0x56, 0xe9,
  0x33, 0xf9, 0xdb, 0x7e, 0xda, 0xd5, 0xb4, 0xa9, 0x27, 0x0f, 0x0c, 0xce,
  0xbc, 0x41, 0x72, 0xb7, 0x4f, 0x94, 0xf7, 0x43, 0xc6, 0x3f, 0xf9, 0x34,
  0x49, 0x7b, 0x8d, 0x6e, 0x0a, 0x2a, 0x72, 0xc4, 0xba, 0x45, 0xdd, 0x47,
  0x2a, 0xb5, 0xa9, 0x02, 0xfd, 0x30, 0x4a, 0x36, 0xc3, 0x0b, 0xcd, 0x90,
  0xe2, 0xf8, 0xff, 0xff, 0x04, 0x00, 0x00, 0x00, 0x80, 0x00, 0x00, 0x00,
  0x6f, 0xfe, 0xff, 0xff, 0x21, 0x06, 0x00, 0x00, 0x2e, 0x02, 0x00, 0x00,
  0xf9, 0xfd, 0xff, 0xff, 0xdf, 0x03, 0x00, 0x00, 0x4e, 0xfe, 0xff, 0xff,
  0xfe, 0xff, 0xff, 0xff, 0xc5, 0xff, 0xff, 0xff, 0xde, 0x02, 0x00, 0x00,
  0xcc, 0xfc, 0xff, 0xff, 0xcd, 0xff, 0xff, 0xff, 0xae, 0x05, 0x00, 0x00,
  0x11, 0xff, 0xff, 0xff, 0xaf, 0x03, 0x00, 0x00, 0x7c, 0x00, 0x00, 0x00,
  0xe6, 0xfc, 0xff, 0xff, 0x10, 0xfd, 0xff, 0xff, 0xbc, 0x00, 0x00, 0x00,
  0xb6, 0x01, 0x00, 0x00, 0xed, 0x05, 0x00, 0x00, 0x84, 0x01, 0x00, 0x00,
  0x7a, 0x04, 0x00, 0x00, 0x9b, 0x05, 0x00, 0x00, 0xfc, 0xff, 0xff, 0xff,
  0x28, 0x03, 0x00, 0x00, 0x70, 0xff, 0xff, 0xff, 0xab, 0xfd, 0xff, 0xff,
  0x32, 0x01, 0x00, 0x00, 0xc0, 0xfb, 0xff, 0xff, 0x1d, 0x01, 0x00, 0x00,
  0x3e, 0xfd, 0xff, 0xff, 0x01, 0x05, 0x00, 0x00, 0x6e, 0xf9, 0xff, 0xff,
  0x04, 0x00, 0x00, 0x00, 0x00, 0x04, 0x00, 0x00, 0x5a, 0xeb, 0x95, 0x8e,
  0x9e, 0xbd, 0x16, 0xa9, 0x06, 0x2a, 0x50, 0x2e, 0xf0, 0x4b, 0xa6, 0x23,
  0x21, 0x81, 0xbe, 0xf0, 0x16, 0x14, 0x29, 0x25, 0x20, 0xc8, 0xc7, 0x60,
  0xca, 0xe0, 0x9b, 0xe5, 0x3c, 0x29, 0x87, 0xf3, 0x74, 0x84, 0x11, 0xae,
  0x5d, 0x0f, 0x13, 0x40, 0xb7, 0xf4, 0x48, 0xbf, 0x3f, 0x6e, 0x83, 0xe5,
  0x81, 0xe8, 0x4a, 0x51, 0x52, 0x7c, 0x70, 0x07, 0xdc, 0x84, 0x28, 0xf7,
  0x76, 0x44, 0x3d, 0x3a, 0x2f, 0x1d, 0xc7, 0xa5, 0x13, 0xcd, 0x9e, 0xba,
  0xa4, 0x0d, 0x4d, 0xe3, 0xc1, 0x41, 0xe9, 0x65, 0x81, 0x55, 0x03, 0x0c,
  0x4a, 0x02, 0x27, 0x38, 0x43, 0x25, 0x93, 0x16, 0x8a, 0xc7, 0x5e, 0x2c,
  0x96, 0x3c, 0xfa, 0x4e, 0x81, 0x26, 0x14, 0x16, 0xf9, 0x27, 0x63, 0xa0,
  0xc6, 0x93, 0x2c, 0xaf, 0x67, 0x16, 0x12, 0x73, 0x9f, 0x9e, 0x12, 0x69,
  0x15, 0xac, 0x22, 0x5c, 0x33, 0x35, 0x6c, 0xee, 0xd9, 0x64, 0x9d, 0x6e,
  0x65, 0x4d, 0x22, 0xc8, 0x86, 0x81, 0x35, 0x3d, 0xe7, 0xbc, 0x43, 0x2e,
  0xe2, 0xfb, 0xc1, 0xa7, 0x12, 0xd9, 0x48, 0x68, 0x6d, 0xde, 0x19, 0x78,
  0x91, 0x3c, 0xb6, 0x47, 0x5f, 0xd3, 0x77, 0xe0, 0x41, 0xbc, 0xc2, 0x2a,
  0x3e, 0xf8, 0xd8, 0x6c, 0xb9, 0x77, 0xfb, 0x3f, 0x02, 0xc4, 0x75, 0xa3,
  0xe4, 0x7f, 0xab, 0x5d, 0x24, 0x14, 0x2a, 0xd7, 0x5a, 0xe1, 0x13, 0x65,
  0xa9, 0x69, 0xcb, 0x0c, 0xf4, 0x43, 0x52, 0xb2, 0x60, 0x50, 0x4d, 0x50,
  0x23, 0xc2, 0xf0, 0x23, 0xb5, 0xc5, 0xe6, 0x24, 0x7f, 0x5c, 0x58, 0xbb,
  0x41, 0x50, 0xfe, 0x27, 0x6d, 0xae, 0x5e, 0x2e, 0xd9, 0x71, 0x15, 0xbf,
  0x00, 0x0b, 0x72, 0xdf, 0x46, 0x56, 0x2d, 0x07, 0x81, 0x69, 0x49, 0xb6,
  0x63, 0xdd, 0x85, 0xc8, 0xaf, 0xee, 0x1a, 0xc4, 0x9a, 0x49, 0x90, 0x1d,
  0xc6, 0x5f, 0x17, 0x2a, 0x13, 0x92, 0x6e, 0x04, 0x53, 0xaf, 0x4f, 0x2b,
  0xeb, 0x85, 0xa4, 0xb0, 0x68, 0xef, 0xd5, 0x78, 0x27, 0x5b, 0x7f, 0xe7,
  0x91, 0xb5, 0xe2, 0xba, 0xcd, 0x9a, 0x65, 0x70, 0x6d, 0x7f, 0x63, 0xcf,
  0x59, 0xc3, 0xa1, 0x44, 0x4e, 0xe5, 0x27, 0x62, 0x4f, 0x74, 0xd2, 0xd1,
  0xb3, 0xfc, 0xfe, 0x2e, 0x95, 0x65, 0x39, 0x9a, 0x2f, 0xe5, 0x0c, 0xd9,
  0x24, 0xcb, 0x3a, 0xf1, 0xaf, 0x51, 0x7f, 0x0e, 0xfc, 0xdf, 0xde, 0xc0,
  0x34, 0xb6, 0xc3, 0x51, 0xc9, 0x03, 0x03, 0xeb, 0x67, 0xcc, 0x64, 0x27,
  0xfe, 0x95, 0x3b, 0x66, 0x3b, 0xbc, 0x19, 0xad, 0xb6, 0xac, 0x15, 0x2e,
  0xfd, 0x55, 0xc3, 0xfc, 0x29, 0x4a, 0x5b, 0x42, 0xad, 0xdb, 0x17, 0x97,
  0x01, 0x3d, 0xee, 0xcd, 0xa5, 0xae, 0x2d, 0x02, 0xf2, 0x6e, 0x7f, 0xcc,
  0x98, 0x5c, 0x00, 0x46, 0x0e, 0x60, 0xb3, 0xf2, 0x67, 0xf0, 0xc7, 0x34,
  0xa7, 0x23, 0x50, 0xf0, 0xf5, 0x67, 0x1a, 0x8f, 0x74, 0x57, 0x67, 0x35,
  0x29, 0x57, 0x3e, 0x0a, 0x88, 0xc6, 0xd9, 0x24, 0x0a, 0x5c, 0x65, 0xe6,
  0xef, 0x00, 0x61, 0x81, 0x7f, 0x22, 0xb4, 0xba, 0x31, 0xc1, 0xa6, 0xfe,
  0xd6, 0x6c, 0xf5, 0x7d, 0x34, 0x7d, 0xaa, 0xda, 0xc6, 0xc2, 0x19, 0x37,
  0xbc, 0x31, 0x36, 0x0b, 0xcd, 0xf6, 0x9a, 0x5a, 0xe4, 0x95, 0xaf, 0xc2,
  0xf2, 0x7f, 0xca, 0xfe, 0x0e, 0x16, 0xa4, 0x9f, 0xaf, 0x30, 0xee, 0xb5,
  0x46, 0x43, 0x56, 0x3f, 0x37, 0x1c, 0x2c, 0x24, 0x92, 0x4e, 0x30, 0x32,
  0xae, 0xd5, 0x08, 0x51, 0xc0, 0x48, 0xba, 0xf1, 0x5f, 0x8d, 0x1c, 0x8b,
  0x58, 0x81, 0x35, 0xd5, 0xff, 0x0c, 0x57, 0xa6, 0x72, 0x1c, 0x21, 0xc2,
  0x76, 0x74, 0xab, 0xb3, 0x41, 0x70, 0x3a, 0xfa, 0x9b, 0x69, 0x5b, 0x48,
  0x5a, 0x0e, 0x53, 0xd5, 0x06, 0xe3, 0x48, 0xba, 0xee, 0xc7, 0x9e, 0x62,
  0xd9, 0xf7, 0x62, 0xd9, 0x77, 0xac, 0x4f, 0xac, 0x24, 0x22, 0x0e, 0x2f,
  0xd6, 0xc7, 0x4a, 0x34, 0x17, 0xc6, 0x0d, 0x02, 0x90, 0x7f, 0x2c, 0x0a,
  0x15, 0xba, 0x81, 0xce, 0xbd, 0xa6, 0x5b, 0xae, 0xc4, 0x65, 0xf4, 0x23,
  0x50, 0xb9, 0x61, 0x14, 0xcf, 0x00, 0xf5, 0x4c, 0x34, 0x6e, 0x01, 0x71,
  0x25, 0x29, 0x18, 0x67, 0x33, 0xc6, 0xf4, 0x7b, 0xd5, 0x83, 0xd9, 0xb8,
  0xa1, 0xe1, 0xfb, 0x82, 0x96, 0x4f, 0xd7, 0x83, 0x1e, 0x42, 0x16, 0x92,
  0x26, 0xc0, 0x03, 0xd2, 0x71, 0x05, 0xa7, 0x8f, 0x40, 0x05, 0x6f, 0xb9,
  0x84, 0xae, 0xfa, 0x7f, 0x50, 0x5b, 0xf2, 0x91, 0x7f, 0xa8, 0x2f, 0xd7,
  0x8d, 0x3d, 0xf5, 0x20, 0x73, 0x00, 0x2e, 0xd3, 0x0b, 0x06, 0x90, 0x4e,
  0x3d, 0x13, 0x4d, 0xbd, 0x56, 0x4e, 0x05, 0x0c, 0xb6, 0x1c, 0x64, 0xc0,
  0x2a, 0x76, 0xb8, 0x27, 0xfd, 0xc5, 0x0d, 0xab, 0xe9, 0xac, 0xf6, 0x2a,
  0x0d, 0x81, 0x5c, 0xab, 0x43, 0xbb, 0x77, 0x48, 0x58, 0x4f, 0x0a, 0xa6,
  0x51, 0x5d, 0x5b, 0x35, 0xa0, 0x19, 0x56, 0x33, 0x57, 0x65, 0x8a, 0x8f,
  0x3b, 0xa0, 0x12, 0x88, 0x2d, 0xa0, 0xe9, 0xc2, 0x2e, 0x3b, 0x68, 0x36,
  0x02, 0x85, 0xe4, 0xf8, 0x8e, 0xb6, 0x81, 0xe2, 0x6d, 0xe5, 0x1b, 0x26,
  0x3d, 0x9b, 0x29, 0x18, 0xf7, 0x20, 0x9b, 0xb5, 0xb2, 0xad, 0xc5, 0xf9,
  0xd0, 0x7f, 0x56, 0x65, 0x68, 0x07, 0x13, 0x18, 0x49, 0x62, 0x6f, 0x14,
  0x56, 0xe8, 0x1d, 0xfd, 0xc6, 0xea, 0x74, 0x3f, 0x8b, 0x3f, 0xd5, 0x5a,
  0xf6, 0xd9, 0xf9, 0x21, 0x75, 0x9e, 0x7f, 0xaf, 0x3d, 0x1b, 0xd2, 0x1e,
  0xdb, 0x77, 0x9d, 0x20, 0x92, 0xd2, 0x15, 0x2c, 0x30, 0xad, 0x25, 0xf1,
  0x6c, 0xa8, 0xbe, 0xa0, 0x71, 0x1b, 0x2e, 0x1e, 0xe1, 0xc9, 0x3a, 0xae,
  0x89, 0xcd, 0xfc, 0x32, 0xcf, 0x28, 0xa3, 0xbf, 0x1d, 0xdd, 0xe7, 0x81,
  0xbb, 0x73, 0x68, 0xe1, 0x0b, 0xa1, 0x10, 0xe1, 0x42, 0x7d, 0xd9, 0xd3,
  0x93, 0x26, 0xa5, 0x30, 0x6e, 0xf2, 0x52, 0xda, 0xb4, 0x1d, 0xc1, 0xa7,
  0x7d, 0x9f, 0x6f, 0xd0, 0xbe, 0x7f, 0x24, 0xf2, 0xa2, 0x1c, 0x41, 0x41,
  0xa7, 0x35, 0x52, 0x49, 0x78, 0xa9, 0xc4, 0xb6, 0xe9, 0xc0, 0x2b, 0xb2,
  0xb3, 0xdd, 0x61, 0xfd, 0x47, 0x75, 0x18, 0x38, 0x67, 0xd5, 0x3a, 0xc3,
  0x32, 0xba, 0x37, 0xdb, 0xda, 0x47, 0x48, 0x5e, 0x58, 0x50, 0x17, 0xd6,
  0x68, 0x7b, 0xb1, 0x9a, 0xe1, 0x32, 0x81, 0x3e, 0xd9, 0x7b, 0x8d, 0x81,
  0xf9, 0xd3, 0x75, 0xe1, 0x12, 0xe9, 0xaa, 0xb8, 0x1b, 0x9c, 0xea, 0x9a,
  0x21, 0x8c, 0x33, 0x45, 0x94, 0x48, 0x91, 0x21, 0xdd, 0xa1, 0x18, 0xbd,
  0xce, 0xec, 0x45, 0xe9, 0xee, 0xc2, 0xbf, 0x4d, 0xde, 0xd8, 0x6c, 0xb8,
  0xc8, 0xf6, 0xe2, 0x63, 0x92, 0x3e, 0x10, 0xec, 0xcd, 0x66, 0x58, 0x7d,
  0x3a, 0xf3, 0x7f, 0xbe, 0x54, 0x44, 0x0c, 0x71, 0xc8, 0x64, 0x5a, 0x59,
  0xd9, 0xf8, 0xfc, 0xda, 0x64, 0xe8, 0x01, 0xcf, 0x6e, 0x18, 0xf3, 0x38,
  0xfa, 0xc0, 0x9a, 0xe6, 0x52, 0x67, 0xb2, 0x16, 0x42, 0x7f, 0x64, 0xb0,
  0x57, 0x23, 0xf5, 0x36, 0x1b, 0x4f, 0x2c, 0x4a, 0xd5, 0x4a, 0xdd, 0x10,
  0xb6, 0x03, 0x6f, 0xec, 0x81, 0xae, 0xf0, 0xd1, 0x74, 0x28, 0xfc, 0xc4,
  0x19, 0x53, 0xa9, 0x19, 0xf9, 0x90, 0x63, 0x07, 0x4e, 0x8b, 0x66, 0x6d,
  0x13, 0x3c, 0x57, 0x0e, 0xfa, 0x21, 0x74, 0xd5, 0x0a, 0x7f, 0x51, 0x0b,
  0xa6, 0xa8, 0xe0, 0xe6, 0x76, 0xf3, 0x13, 0x55, 0xa6, 0x40, 0xc9, 0xdd,
  0xf3, 0xb4, 0x18, 0x7c, 0x7e, 0xe6, 0x38, 0x15, 0x2d, 0xa2, 0xcb, 0x06,
  0x7a, 0xfd, 0xff, 0xff, 0x04, 0x00, 0x00, 0x00, 0x80, 0x00, 0x00, 0x00,
  0x00, 0x00, 0x00, 0x00, 0xdf, 0x03, 0x00, 0x00, 0xcb, 0x01, 0x00, 0x00,
  0xb8, 0xfc, 0xff, 0xff, 0x5d, 0xfd, 0xff, 0xff, 0x64, 0x03, 0x00, 0x00,
  0xcf, 0x05, 0x00, 0x00, 0xee, 0xfc, 0xff, 0xff, 0xce, 0x01, 0x00, 0x00,
  0xeb, 0x05, 0x00, 0x00, 0x23, 0x04, 0x00, 0x00, 0x56, 0x05, 0x00, 0x00,
  0x69, 0xfb, 0xff, 0xff, 0x43, 0x04, 0x00, 0x00, 0xd9, 0x06, 0x00, 0x00,
  0xb6, 0xfb, 0xff, 0xff, 0x19, 0x03, 0x00, 0x00, 0xbd, 0x03, 0x00, 0x00,
  0x00, 0x00, 0x00, 0x00, 0xbd, 0x01, 0x00, 0x00, 0x38, 0x03, 0x00, 0x00,
  0xe6, 0xfc, 0xff, 0xff, 0x62, 0x02, 0x00, 0x00, 0xcb, 0x05, 0x00, 0x00,
  0x00, 0x00, 0x00, 0x00, 0x79, 0x06, 0x00, 0x00, 0xf7, 0x04, 0x00, 0x00,
  0xc4, 0xfe, 0xff, 0xff, 0xdc, 0x03, 0x00, 0x00, 0x31, 0x03, 0x00, 0x00,
  0x7c, 0xfc, 0xff, 0xff, 0xab, 0x04, 0x00, 0x00, 0x06, 0xfe, 0xff, 0xff,
  0x04, 0x00, 0x00, 0x00, 0x80, 0x00, 0x00, 0x00, 0xf9, 0x30, 0x04, 0x85,
  0xa6, 0x7a, 0x12, 0x26, 0x2b, 0x60, 0x9d, 0x7b, 0x90, 0x10, 0x42, 0x52,
  0x81, 0x47, 0xf1, 0x75, 0x44, 0x00, 0x4b, 0xf9, 0x17, 0xd8, 0x09, 0x97,
  0xfc, 0x40, 0x10, 0x2e, 0x42, 0x08, 0x53, 0xb6, 0x12, 0xb2, 0x71, 0x56,
  0xba, 0x5a, 0x44, 0xbb, 0x36, 0xa7, 0x48, 0x3f, 0xc3, 0xf2, 0x20, 0x1c,
  0x86, 0x1a, 0x8f, 0x21, 0x37, 0x6d, 0x66, 0x53, 0xcc, 0x8d, 0x20, 0x7f,
  0x24, 0x4e, 0xdc, 0x0d, 0x03, 0x12, 0x30, 0x3b, 0xe2, 0xb2, 0x22, 0xd5,
  0x7f, 0x50, 0x57, 0x7a, 0xf9, 0x41, 0x4c, 0x59, 0xf4, 0xe6, 0x52, 0xc9,
  0x82, 0xb6, 0xec, 0xa1, 0xcc, 0xa3, 0x55, 0x7c, 0x56, 0x81, 0xb5, 0xcb,
  0x7a, 0x24, 0x4c, 0xff, 0xfd, 0xff, 0x1d, 0x8a, 0xcc, 0xe1, 0x9e, 0x9d,
  0xe1, 0x42, 0xec, 0x25, 0x57, 0x67, 0x76, 0xb0, 0xe4, 0x9c, 0x0f, 0x98,
  0x18, 0x4b, 0xed, 0xbc, 0x92, 0xfe, 0xff, 0xff, 0x04, 0x00, 0x00, 0x00,
  0x10, 0x00, 0x00, 0x00, 0x05, 0x01, 0x00, 0x00, 0xa4, 0x05, 0x00, 0x00,
  0x24, 0xfa, 0xff, 0xff, 0x9a, 0x03, 0x00, 0x00, 0xae, 0xfe, 0xff, 0xff,
  0x04, 0x00, 0x00, 0x00, 0x0c, 0x00, 0x00, 0x00, 0xff, 0xff, 0xff, 0xff,
  0x19, 0x00, 0x00, 0x00, 0x20, 0x00, 0x00, 0x00, 0xc6, 0xfe, 0xff, 0xff,
  0x04, 0x00, 0x00, 0x00, 0x0c, 0x00, 0x00, 0x00, 0xff, 0xff, 0xff, 0xff,
  0x32, 0x00, 0x00, 0x00, 0x20, 0x00, 0x00, 0x00, 0xde, 0xfe, 0xff, 0xff,
  0x04, 0x00, 0x00, 0x00, 0x0c, 0x00, 0x00, 0x00, 0xff, 0xff, 0xff, 0xff,
  0x32, 0x00, 0x00, 0x00, 0x10, 0x00, 0x00, 0x00, 0xf6, 0xfe, 0xff, 0xff,
  0x04, 0x00, 0x00, 0x00, 0x04, 0x00, 0x00, 0x00, 0x01, 0x00, 0x00, 0x00,
  0x06, 0xff, 0xff, 0xff, 0x04, 0x00, 0x00, 0x00, 0x0c, 0x00, 0x00, 0x00,
  0xff, 0xff, 0xff, 0xff, 0x64, 0x00, 0x00, 0x00, 0x10, 0x00, 0x00, 0x00,
  0x1e, 0xff, 0xff, 0xff, 0x04, 0x00, 0x00, 0x00, 0x04, 0x00, 0x00, 0x00,
  0xfd, 0xff, 0xff, 0xff, 0xd8, 0xd2, 0xff, 0xff, 0xdc, 0xd2, 0xff, 0xff,
  0x0f, 0x00, 0x00, 0x00, 0x4d, 0x4c, 0x49, 0x52, 0x20, 0x43, 0x6f, 0x6e,
  0x76, 0x65, 0x72, 0x74, 0x65, 0x64, 0x2e, 0x00, 0x01, 0x00, 0x00, 0x00,
  0x14, 0x00, 0x00, 0x00, 0x00, 0x00, 0x0e, 0x00, 0x18, 0x00, 0x14, 0x00,
  0x10, 0x00, 0x0c, 0x00, 0x08, 0x00, 0x04, 0x00, 0x0e, 0x00, 0x00, 0x00,
  0x14, 0x00, 0x00, 0x00, 0x1c, 0x00, 0x00, 0x00, 0x3c, 0x05, 0x00, 0x00,
  0x40, 0x05, 0x00, 0x00, 0x44, 0x05, 0x00, 0x00, 0x04, 0x00, 0x00, 0x00,
  0x6d, 0x61, 0x69, 0x6e, 0x00, 0x00, 0x00, 0x00, 0x17, 0x00, 0x00, 0x00,
  0xf4, 0x04, 0x00, 0x00, 0x94, 0x04, 0x00, 0x00, 0x50, 0x04, 0x00, 0x00,
  0x1c, 0x04, 0x00, 0x00, 0xf4, 0x03, 0x00, 0x00, 0xb8, 0x03, 0x00, 0x00,
  0x64, 0x03, 0x00, 0x00, 0x2c, 0x03, 0x00, 0x00, 0xfc, 0x02, 0x00, 0x00,
  0xb8, 0x02, 0x00, 0x00, 0x84, 0x02, 0x00, 0x00, 0x50, 0x02, 0x00, 0x00,
  0x28, 0x02, 0x00, 0x00, 0xf8, 0x01, 0x00, 0x00, 0xb4, 0x01, 0x00, 0x00,
  0x8c, 0x01, 0x00, 0x00, 0x5c, 0x01, 0x00, 0x00, 0x18, 0x01, 0x00, 0x00,
  0xf0, 0x00, 0x00, 0x00, 0xbc, 0x00, 0x00, 0x00, 0x78, 0x00, 0x00, 0x00,
  0x40, 0x00, 0x00, 0x00, 0x04, 0x00, 0x00, 0x00, 0xee, 0xfc, 0xff, 0xff,
  0x1c, 0x00, 0x00, 0x00, 0x00, 0x00, 0x00, 0x09, 0x1c, 0x00, 0x00, 0x00,
  0x20, 0x00, 0x00, 0x00, 0x08, 0x00, 0x00, 0x00, 0x00, 0x00, 0x06, 0x00,
  0x08, 0x00, 0x04, 0x00, 0x06, 0x00, 0x00, 0x00, 0x00, 0x00, 0x80, 0x3f,
  0x01, 0x00, 0x00, 0x00, 0x2b, 0x00, 0x00, 0x00, 0x01, 0x00, 0x00, 0x00,
  0x2a, 0x00, 0x00, 0x00, 0x0a, 0xfc, 0xff, 0xff, 0x14, 0x00, 0x00, 0x00,
  0x00, 0x00, 0x00, 0x08, 0x10, 0x00, 0x00, 0x00, 0x14, 0x00, 0x00, 0x00,
  0x07, 0x00, 0x00, 0x00, 0xe0, 0xd3, 0xff, 0xff, 0x01, 0x00, 0x00, 0x00,
  0x2a, 0x00, 0x00, 0x00, 0x03, 0x00, 0x00, 0x00, 0x29, 0x00, 0x00, 0x00,
  0x08, 0x00, 0x00, 0x00, 0x07, 0x00, 0x00, 0x00, 0x5a, 0xfd, 0xff, 0xff,
  0x1c, 0x00, 0x00, 0x00, 0x00, 0x00, 0x00, 0x08, 0x1c, 0x00, 0x00, 0x00,
  0x20, 0x00, 0x00, 0x00, 0x07, 0x00, 0x00, 0x00, 0x00, 0x00, 0x06, 0x00,
  0x08, 0x00, 0x07, 0x00, 0x06, 0x00, 0x00, 0x00, 0x00, 0x00, 0x00, 0x01,
  0x01, 0x00, 0x00, 0x00, 0x29, 0x00, 0x00, 0x00, 0x03, 0x00, 0x00, 0x00,
  0x28, 0x00, 0x00, 0x00, 0x0a, 0x00, 0x00, 0x00, 0x09, 0x00, 0x00, 0x00,
  0x7e, 0xfc, 0xff, 0xff, 0x14, 0x00, 0x00, 0x00, 0x00, 0x00, 0x00, 0x1b,
  0x10, 0x00, 0x00, 0x00, 0x14, 0x00, 0x00, 0x00, 0x06, 0x00, 0x00, 0x00,
  0x54, 0xd4, 0xff, 0xff, 0x01, 0x00, 0x00, 0x00, 0x28, 0x00, 0x00, 0x00,
  0x02, 0x00, 0x00, 0x00, 0x27, 0x00, 0x00, 0x00, 0x03, 0x00, 0x00, 0x00,
  0x3e, 0xfd, 0xff, 0xff, 0x0c, 0x00, 0x00, 0x00, 0x10, 0x00, 0x00, 0x00,
  0x04, 0x00, 0x00, 0x00, 0x01, 0x00, 0x00, 0x00, 0x27, 0x00, 0x00, 0x00,
  0x02, 0x00, 0x00, 0x00, 0x26, 0x00, 0x00, 0x00, 0x06, 0x00, 0x00, 0x00,
  0xd2, 0xfc, 0xff, 0xff, 0x14, 0x00, 0x00, 0x00, 0x00, 0x00, 0x00, 0x01,
  0x1c, 0x00, 0x00, 0x00, 0x20, 0x00, 0x00, 0x00, 0x01, 0x00, 0x00, 0x00,
  0xc4, 0xfc, 0xff, 0xff, 0x00, 0x00, 0x00, 0x01, 0x01, 0x00, 0x00, 0x00,
  0x01, 0x00, 0x00, 0x00, 0x01, 0x00, 0x00, 0x00, 0x26, 0x00, 0x00, 0x00,
  0x03, 0x00, 0x00, 0x00, 0x25, 0x00, 0x00, 0x00, 0x0c, 0x00, 0x00, 0x00,
  0x0b, 0x00, 0x00, 0x00, 0xb6, 0xfc, 0xff, 0xff, 0x10, 0x00, 0x00, 0x00,
  0x00, 0x00, 0x00, 0x34, 0x0c, 0x00, 0x00, 0x00, 0x10, 0x00, 0x00, 0x00,
  0xe4, 0xd4, 0xff, 0xff, 0x01, 0x00, 0x00, 0x00, 0x25, 0x00, 0x00, 0x00,
  0x02, 0x00, 0x00, 0x00, 0x24, 0x00, 0x00, 0x00, 0x01, 0x00, 0x00, 0x00,
  0xce, 0xfd, 0xff, 0xff, 0x0c, 0x00, 0x00, 0x00, 0x10, 0x00, 0x00, 0x00,
  0x04, 0x00, 0x00, 0x00, 0x01, 0x00, 0x00, 0x00, 0x24, 0x00, 0x00, 0x00,
  0x02, 0x00, 0x00, 0x00, 0x23, 0x00, 0x00, 0x00, 0x06, 0x00, 0x00, 0x00,
  0x62, 0xfd, 0xff, 0xff, 0x14, 0x00, 0x00, 0x00, 0x00, 0x00, 0x00, 0x05,
  0x24, 0x00, 0x00, 0x00, 0x28, 0x00, 0x00, 0x00, 0x05, 0x00, 0x00, 0x00,
  0x6e, 0xfe, 0xff, 0xff, 0x01, 0x00, 0x00, 0x00, 0x02, 0x00, 0x00, 0x00,
  0x01, 0x00, 0x00, 0x00, 0x02, 0x00, 0x00, 0x00, 0x00, 0x00, 0x00, 0x01,
  0x01, 0x00, 0x00, 0x00, 0x23, 0x00, 0x00, 0x00, 0x01, 0x00, 0x00, 0x00,
  0x22, 0x00, 0x00, 0x00, 0x46, 0xfd, 0xff, 0xff, 0x10, 0x00, 0x00, 0x00,
  0x00, 0x00, 0x00, 0x34, 0x0c, 0x00, 0x00, 0x00, 0x10, 0x00, 0x00, 0x00,
  0x74, 0xd5, 0xff, 0xff, 0x01, 0x00, 0x00, 0x00, 0x22, 0x00, 0x00, 0x00,
  0x02, 0x00, 0x00, 0x00, 0x21, 0x00, 0x00, 0x00, 0x03, 0x00, 0x00, 0x00,
  0x5e, 0xfe, 0xff, 0xff, 0x0c, 0x00, 0x00, 0x00, 0x10, 0x00, 0x00, 0x00,
  0x04, 0x00, 0x00, 0x00, 0x01, 0x00, 0x00, 0x00, 0x21, 0x00, 0x00, 0x00,
  0x02, 0x00, 0x00, 0x00, 0x20, 0x00, 0x00, 0x00, 0x05, 0x00, 0x00, 0x00,
  0xf2, 0xfd, 0xff, 0xff, 0x14, 0x00, 0x00, 0x00, 0x00, 0x00, 0x00, 0x0b,
  0x10, 0x00, 0x00, 0x00, 0x14, 0x00, 0x00, 0x00, 0x03, 0x00, 0x00, 0x00,
  0xc8, 0xd5, 0xff, 0xff, 0x01, 0x00, 0x00, 0x00, 0x20, 0x00, 0x00, 0x00,
  0x02, 0x00, 0x00, 0x00, 0x1f, 0x00, 0x00, 0x00, 0x0d, 0x00, 0x00, 0x00,
  0x22, 0xfe, 0xff, 0xff, 0x14, 0x00, 0x00, 0x00, 0x00, 0x00, 0x00, 0x15,
  0x10, 0x00, 0x00, 0x00, 0x14, 0x00, 0x00, 0x00, 0x02, 0x00, 0x00, 0x00,
  0xf8, 0xd5, 0xff, 0xff, 0x01, 0x00, 0x00, 0x00, 0x1f, 0x00, 0x00, 0x00,
  0x02, 0x00, 0x00, 0x00, 0x1e, 0x00, 0x00, 0x00, 0x0e, 0x00, 0x00, 0x00,
  0x52, 0xfe, 0xff, 0xff, 0x14, 0x00, 0x00, 0x00, 0x00, 0x00, 0x00, 0x01,
  0x1c, 0x00, 0x00, 0x00, 0x20, 0x00, 0x00, 0x00, 0x01, 0x00, 0x00, 0x00,
  0x44, 0xfe, 0xff, 0xff, 0x00, 0x00, 0x00, 0x01, 0x01, 0x00, 0x00, 0x00,
  0x01, 0x00, 0x00, 0x00, 0x01, 0x00, 0x00, 0x00, 0x1e, 0x00, 0x00, 0x00,
  0x03, 0x00, 0x00, 0x00, 0x1d, 0x00, 0x00, 0x00, 0x10, 0x00, 0x00, 0x00,
  0x0f, 0x00, 0x00, 0x00, 0x36, 0xfe, 0xff, 0xff, 0x10, 0x00, 0x00, 0x00,
  0x00, 0x00, 0x00, 0x34, 0x0c, 0x00, 0x00, 0x00, 0x10, 0x00, 0x00, 0x00,
  0x64, 0xd6, 0xff, 0xff, 0x01, 0x00, 0x00, 0x00, 0x1d, 0x00, 0x00, 0x00,
  0x02, 0x00, 0x00, 0x00, 0x1c, 0x00, 0x00, 0x00, 0x01, 0x00, 0x00, 0x00,
  0x4e, 0xff, 0xff, 0xff, 0x0c, 0x00, 0x00, 0x00, 0x10, 0x00, 0x00, 0x00,
  0x04, 0x00, 0x00, 0x00, 0x01, 0x00, 0x00, 0x00, 0x1c, 0x00, 0x00, 0x00,
  0x02, 0x00, 0x00, 0x00, 0x1b, 0x00, 0x00, 0x00, 0x04, 0x00, 0x00, 0x00,
  0x00, 0x00, 0x0e, 0x00, 0x1a, 0x00, 0x14, 0x00, 0x10, 0x00, 0x0c, 0x00,
  0x0b, 0x00, 0x04, 0x00, 0x0e, 0x00, 0x00, 0x00, 0x24, 0x00, 0x00, 0x00,
  0x00, 0x00, 0x00, 0x05, 0x34, 0x00, 0x00, 0x00, 0x38, 0x00, 0x00, 0x00,
  0x05, 0x00, 0x00, 0x00, 0x00, 0x00, 0x0e, 0x00, 0x18, 0x00, 0x17, 0x00,
  0x10, 0x00, 0x0c, 0x00, 0x08, 0x00, 0x04, 0x00, 0x0e, 0x00, 0x00, 0x00,
  0x01, 0x00, 0x00, 0x00, 0x02, 0x00, 0x00, 0x00, 0x01, 0x00, 0x00, 0x00,
  0x02, 0x00, 0x00, 0x00, 0x00, 0x00, 0x00, 0x01, 0x01, 0x00, 0x00, 0x00,
  0x1b, 0x00, 0x00, 0x00, 0x01, 0x00, 0x00, 0x00, 0x1a, 0x00, 0x00, 0x00,
  0xe6, 0xfe, 0xff, 0xff, 0x10, 0x00, 0x00, 0x00, 0x00, 0x00, 0x00, 0x34,
  0x0c, 0x00, 0x00, 0x00, 0x10, 0x00, 0x00, 0x00, 0x14, 0xd7, 0xff, 0xff,
  0x01, 0x00, 0x00, 0x00, 0x1a, 0x00, 0x00, 0x00, 0x02, 0x00, 0x00, 0x00,
  0x19, 0x00, 0x00, 0x00, 0x03, 0x00, 0x00, 0x00, 0x00, 0x00, 0x0a, 0x00,
  0x10, 0x00, 0x0c, 0x00, 0x08, 0x00, 0x04, 0x00, 0x0a, 0x00, 0x00, 0x00,
  0x0c, 0x00, 0x00, 0x00, 0x10, 0x00, 0x00, 0x00, 0x04, 0x00, 0x00, 0x00,
  0x01, 0x00, 0x00, 0x00, 0x19, 0x00, 0x00, 0x00, 0x02, 0x00, 0x00, 0x00,
  0x18, 0x00, 0x00, 0x00, 0x02, 0x00, 0x00, 0x00, 0x9e, 0xff, 0xff, 0xff,
  0x14, 0x00, 0x00, 0x00, 0x00, 0x00, 0x00, 0x0b, 0x10, 0x00, 0x00, 0x00,
  0x14, 0x00, 0x00, 0x00, 0x03, 0x00, 0x00, 0x00, 0x74, 0xd7, 0xff, 0xff,
  0x01, 0x00, 0x00, 0x00, 0x18, 0x00, 0x00, 0x00, 0x02, 0x00, 0x00, 0x00,
  0x17, 0x00, 0x00, 0x00, 0x11, 0x00, 0x00, 0x00, 0xce, 0xff, 0xff, 0xff,
  0x14, 0x00, 0x00, 0x00, 0x00, 0x00, 0x00, 0x15, 0x10, 0x00, 0x00, 0x00,
  0x14, 0x00, 0x00, 0x00, 0x02, 0x00, 0x00, 0x00, 0xa4, 0xd7, 0xff, 0xff,
  0x01, 0x00, 0x00, 0x00, 0x17, 0x00, 0x00, 0x00, 0x02, 0x00, 0x00, 0x00,
  0x16, 0x00, 0x00, 0x00, 0x12, 0x00, 0x00, 0x00, 0x00, 0x00, 0x0e, 0x00,
  0x18, 0x00, 0x14, 0x00, 0x10, 0x00, 0x0c, 0x00, 0x0b, 0x00, 0x04, 0x00,
  0x0e, 0x00, 0x00, 0x00, 0x20, 0x00, 0x00, 0x00, 0x00, 0x00, 0x00, 0x01,
  0x28, 0x00, 0x00, 0x00, 0x2c, 0x00, 0x00, 0x00, 0x01, 0x00, 0x00, 0x00,
  0x0c, 0x00, 0x10, 0x00, 0x00, 0x00, 0x0c, 0x00, 0x08, 0x00, 0x07, 0x00,
  0x0c, 0x00, 0x00, 0x00, 0x00, 0x00, 0x00, 0x01, 0x01, 0x00, 0x00, 0x00,
  0x02, 0x00, 0x00, 0x00, 0x01, 0x00, 0x00, 0x00, 0x16, 0x00, 0x00, 0x00,
  0x03, 0x00, 0x00, 0x00, 0x15, 0x00, 0x00, 0x00, 0x14, 0x00, 0x00, 0x00,
  0x13, 0x00, 0x00, 0x00, 0x00, 0x00, 0x0e, 0x00, 0x14, 0x00, 0x00, 0x00,
  0x10, 0x00, 0x0c, 0x00, 0x0b, 0x00, 0x04, 0x00, 0x0e, 0x00, 0x00, 0x00,
  0x10, 0x00, 0x00, 0x00, 0x00, 0x00, 0x00, 0x34, 0x0c, 0x00, 0x00, 0x00,
  0x10, 0x00, 0x00, 0x00, 0x3c, 0xd8, 0xff, 0xff, 0x01, 0x00, 0x00, 0x00,
  0x15, 0x00, 0x00, 0x00, 0x02, 0x00, 0x00, 0x00, 0x00, 0x00, 0x00, 0x00,
  0x01, 0x00, 0x00, 0x00, 0x01, 0x00, 0x00, 0x00, 0x2b, 0x00, 0x00, 0x00,
  0x01, 0x00, 0x00, 0x00, 0x00, 0x00, 0x00, 0x00, 0x2c, 0x00, 0x00, 0x00,
  0xd0, 0x27, 0x00, 0x00, 0x78, 0x27, 0x00, 0x00, 0x20, 0x27, 0x00, 0x00,
  0xe4, 0x26, 0x00, 0x00, 0xa4, 0x26, 0x00, 0x00, 0x64, 0x26, 0x00, 0x00,
  0x24, 0x26, 0x00, 0x00, 0x9c, 0x25, 0x00, 0x00, 0x10, 0x25, 0x00, 0x00,
  0x3c, 0x23, 0x00, 0x00, 0x60, 0x21, 0x00, 0x00, 0x8c, 0x1f, 0x00, 0x00,
  0xa8, 0x1d, 0x00, 0x00, 0x44, 0x1d, 0x00, 0x00, 0xe0, 0x1c, 0x00, 0x00,
  0x0c, 0x1b, 0x00, 0x00, 0x28, 0x19, 0x00, 0x00, 0xc4, 0x18, 0x00, 0x00,
  0x60, 0x18, 0x00, 0x00, 0x4c, 0x17, 0x00, 0x00, 0x28, 0x16, 0x00, 0x00,
  0x84, 0x15, 0x00, 0x00, 0x70, 0x14, 0x00, 0x00, 0x14, 0x13, 0x00, 0x00,
  0x58, 0x11, 0x00, 0x00, 0xa0, 0x0f, 0x00, 0x00, 0xf8, 0x0e, 0x00, 0x00,
  0x5c, 0x0e, 0x00, 0x00, 0xc4, 0x0d, 0x00, 0x00, 0x24, 0x0d, 0x00, 0x00,
  0x00, 0x0c, 0x00, 0x00, 0x9c, 0x0a, 0x00, 0x00, 0xd0, 0x08, 0x00, 0x00,
  0x08, 0x07, 0x00, 0x00, 0x60, 0x06, 0x00, 0x00, 0xc4, 0x05, 0x00, 0x00,
  0x24, 0x05, 0x00, 0x00, 0x84, 0x04, 0x00, 0x00, 0x60, 0x03, 0x00, 0x00,
  0x68, 0x02, 0x00, 0x00, 0xd8, 0x01, 0x00, 0x00, 0x24, 0x01, 0x00, 0x00,
  0x80, 0x00, 0x00, 0x00, 0x04, 0x00, 0x00, 0x00, 0xf6, 0xd8, 0xff, 0xff,
  0x00, 0x00, 0x00, 0x01, 0x18, 0x00, 0x00, 0x00, 0x20, 0x00, 0x00, 0x00,
  0x3c, 0x00, 0x00, 0x00, 0x2c, 0x00, 0x00, 0x00, 0x00, 0x00, 0x00, 0x09,
  0x50, 0x00, 0x00, 0x00, 0x02, 0x00, 0x00, 0x00, 0xff, 0xff, 0xff, 0xff,
  0x04, 0x00, 0x00, 0x00, 0xdc, 0xd8, 0xff, 0xff, 0x08, 0x00, 0x00, 0x00,
  0x10, 0x00, 0x00, 0x00, 0x01, 0x00, 0x00, 0x00, 0x80, 0xff, 0xff, 0xff,
  0xff, 0xff, 0xff, 0xff, 0x01, 0x00, 0x00, 0x00, 0x00, 0x00, 0x80, 0x3b,
  0x1b, 0x00, 0x00, 0x00, 0x53, 0x74, 0x61, 0x74, 0x65, 0x66, 0x75, 0x6c,
  0x50, 0x61, 0x72, 0x74, 0x69, 0x74, 0x69, 0x6f, 0x6e, 0x65, 0x64, 0x43,
  0x61, 0x6c, 0x6c, 0x5f, 0x31, 0x3a, 0x30, 0x00, 0x02, 0x00, 0x00, 0x00,
  0x01, 0x00, 0x00, 0x00, 0x04, 0x00, 0x00, 0x00, 0x6e, 0xd9, 0xff, 0xff,
  0x00, 0x00, 0x00, 0x01, 0x18, 0x00, 0x00, 0x00, 0x20, 0x00, 0x00, 0x00,
  0x40, 0x00, 0x00, 0x00, 0x2b, 0x00, 0x00, 0x00, 0x00, 0x00, 0x00, 0x09,
  0x78, 0x00, 0x00, 0x00, 0x02, 0x00, 0x00, 0x00, 0xff, 0xff, 0xff, 0xff,
  0x04, 0x00, 0x00, 0x00, 0x54, 0xd9, 0xff, 0xff, 0x08, 0x00, 0x00, 0x00,
  0x14, 0x00, 0x00, 0x00, 0x01, 0x00, 0x00, 0x00, 0xb9, 0xff, 0xff, 0xff,
  0xff, 0xff, 0xff, 0xff, 0x00, 0x00, 0x00, 0x00, 0x01, 0x00, 0x00, 0x00,
  0xbd, 0xff, 0xb9, 0x3c, 0x3c, 0x00, 0x00, 0x00, 0x66, 0x75, 0x6e, 0x63,
  0x74, 0x69, 0x6f, 0x6e, 0x61, 0x6c, 0x5f, 0x31, 0x2f, 0x64, 0x65, 0x6e,
  0x73, 0x65, 0x5f, 0x31, 0x5f, 0x32, 0x2f, 0x4d, 0x61, 0x74, 0x4d, 0x75,
  0x6c, 0x3b, 0x66, 0x75, 0x6e, 0x63, 0x74, 0x69, 0x6f, 0x6e, 0x61, 0x6c,
  0x5f, 0x31, 0x2f, 0x64, 0x65, 0x6e, 0x73, 0x65, 0x5f, 0x31, 0x5f, 0x32,
  0x2f, 0x42, 0x69, 0x61, 0x73, 0x41, 0x64, 0x64, 0x00, 0x00, 0x00, 0x00,
  0x02, 0x00, 0x00, 0x00, 0x01, 0x00, 0x00, 0x00, 0x04, 0x00, 0x00, 0x00,
  0x0e, 0xda, 0xff, 0xff, 0x00, 0x00, 0x00, 0x01, 0x18, 0x00, 0x00, 0x00,
  0x20, 0x00, 0x00, 0x00, 0x3c, 0x00, 0x00, 0x00, 0x2a, 0x00, 0x00, 0x00,
  0x00, 0x00, 0x00, 0x09, 0x88, 0x00, 0x00, 0x00, 0x02, 0x00, 0x00, 0x00,
  0xff, 0xff, 0xff, 0xff, 0x20, 0x00, 0x00, 0x00, 0xf4, 0xd9, 0xff, 0xff,
  0x08, 0x00, 0x00, 0x00, 0x10, 0x00, 0x00, 0x00, 0x01, 0x00, 0x00, 0x00,
  0x80, 0xff, 0xff, 0xff, 0xff, 0xff, 0xff, 0xff, 0x01, 0x00, 0x00, 0x00,
  0xb6, 0x78, 0x23, 0x3c, 0x52, 0x00, 0x00, 0x00, 0x66, 0x75, 0x6e, 0x63,
  0x74, 0x69, 0x6f, 0x6e, 0x61, 0x6c, 0x5f, 0x31, 0x2f, 0x64, 0x65, 0x6e,
  0x73, 0x65, 0x5f, 0x31, 0x2f, 0x4d, 0x61, 0x74, 0x4d, 0x75, 0x6c, 0x3b,
  0x66, 0x75, 0x6e, 0x63, 0x74, 0x69, 0x6f, 0x6e, 0x61, 0x6c, 0x5f, 0x31,
  0x2f, 0x64, 0x65, 0x6e, 0x73, 0x65, 0x5f, 0x31, 0x2f, 0x52, 0x65, 0x6c,
  0x75, 0x3b, 0x66, 0x75, 0x6e, 0x63, 0x74, 0x69, 0x6f, 0x6e, 0x61, 0x6c,
  0x5f, 0x31, 0x2f, 0x64, 0x65, 0x6e, 0x73, 0x65, 0x5f, 0x31, 0x2f, 0x42,
  0x69, 0x61, 0x73, 0x41, 0x64, 0x64, 0x00, 0x00, 0x02, 0x00, 0x00, 0x00,
  0x01, 0x00, 0x00, 0x00, 0x20, 0x00, 0x00, 0x00, 0xbe, 0xda, 0xff, 0xff,
  0x00, 0x00, 0x00, 0x01, 0x18, 0x00, 0x00, 0x00, 0x20, 0x00, 0x00, 0x00,
  0x3c, 0x00, 0x00, 0x00, 0x29, 0x00, 0x00, 0x00, 0x00, 0x00, 0x00, 0x09,
  0x64, 0x00, 0x00, 0x00, 0x02, 0x00, 0x00, 0x00, 0xff, 0xff, 0xff, 0xff,
  0x20, 0x00, 0x00, 0x00, 0xa4, 0xda, 0xff, 0xff, 0x08, 0x00, 0x00, 0x00,
  0x10, 0x00, 0x00, 0x00, 0x01, 0x00, 0x00, 0x00, 0x80, 0xff, 0xff, 0xff,
  0xff, 0xff, 0xff, 0xff, 0x01, 0x00, 0x00, 0x00, 0x85, 0x1c, 0x26, 0x3c,
  0x2c, 0x00, 0x00, 0x00, 0x66, 0x75, 0x6e, 0x63, 0x74, 0x69, 0x6f, 0x6e,
  0x61, 0x6c, 0x5f, 0x31, 0x2f, 0x67, 0x6c, 0x6f, 0x62, 0x61, 0x6c, 0x5f,
  0x61, 0x76, 0x65, 0x72, 0x61, 0x67, 0x65, 0x5f, 0x70, 0x6f, 0x6f, 0x6c,
  0x69, 0x6e, 0x67, 0x31, 0x64, 0x5f, 0x31, 0x2f, 0x4d, 0x65, 0x61, 0x6e,
  0x00, 0x00, 0x00, 0x00, 0x02, 0x00, 0x00, 0x00, 0x01, 0x00, 0x00, 0x00,
  0x20, 0x00, 0x00, 0x00, 0x4a, 0xdb, 0xff, 0xff, 0x00, 0x00, 0x00, 0x01,
  0x18, 0x00, 0x00, 0x00, 0x24, 0x00, 0x00, 0x00, 0x44, 0x00, 0x00, 0x00,
  0x28, 0x00, 0x00, 0x00, 0x00, 0x00, 0x00, 0x09, 0xc8, 0x00, 0x00, 0x00,
  0x03, 0x00, 0x00, 0x00, 0xff, 0xff, 0xff, 0xff, 0x19, 0x00, 0x00, 0x00,
  0x20, 0x00, 0x00, 0x00, 0x34, 0xdb, 0xff, 0xff, 0x08, 0x00, 0x00, 0x00,
  0x14, 0x00, 0x00, 0x00, 0x01, 0x00, 0x00, 0x00, 0x80, 0xff, 0xff, 0xff,
  0xff, 0xff, 0xff, 0xff, 0x00, 0x00, 0x00, 0x00, 0x01, 0x00, 0x00, 0x00,
  0xf5, 0xfb, 0xcd, 0x3c, 0x88, 0x00, 0x00, 0x00, 0x66, 0x75, 0x6e, 0x63,
  0x74, 0x69, 0x6f, 0x6e, 0x61, 0x6c, 0x5f, 0x31, 0x2f, 0x63, 0x6f, 0x6e,
  0x76, 0x31, 0x64, 0x5f, 0x32, 0x5f, 0x31, 0x2f, 0x52, 0x65, 0x6c, 0x75,
  0x3b, 0x66, 0x75, 0x6e, 0x63, 0x74, 0x69, 0x6f, 0x6e, 0x61, 0x6c, 0x5f,
  0x31, 0x2f, 0x63, 0x6f, 0x6e, 0x76, 0x31, 0x64, 0x5f, 0x32, 0x5f, 0x31,
  0x2f, 0x42, 0x69, 0x61, 0x73, 0x41, 0x64, 0x64, 0x3b, 0x66, 0x75, 0x6e,
  0x63, 0x74, 0x69, 0x6f, 0x6e, 0x61, 0x6c, 0x5f, 0x31, 0x2f, 0x63, 0x6f,
  0x6e, 0x76, 0x31, 0x64, 0x5f, 0x32, 0x5f, 0x31, 0x2f, 0x63, 0x6f, 0x6e,
  0x76, 0x6f, 0x6c, 0x75, 0x74, 0x69, 0x6f, 0x6e, 0x2f, 0x53, 0x71, 0x75,
  0x65, 0x65, 0x7a, 0x65, 0x3b, 0x66, 0x75, 0x6e, 0x63, 0x74, 0x69, 0x6f,
  0x6e, 0x61, 0x6c, 0x5f, 0x31, 0x2f, 0x63, 0x6f, 0x6e, 0x76, 0x31, 0x64,
  0x5f, 0x32, 0x5f, 0x31, 0x2f, 0x53, 0x71, 0x75, 0x65, 0x65, 0x7a, 0x65,
  0x00, 0x00, 0x00, 0x00, 0x03, 0x00, 0x00, 0x00, 0x01, 0x00, 0x00, 0x00,
  0x19, 0x00, 0x00, 0x00, 0x20, 0x00, 0x00, 0x00, 0x3e, 0xdc, 0xff, 0xff,
  0x00, 0x00, 0x00, 0x01, 0x18, 0x00, 0x00, 0x00, 0x28, 0x00, 0x00, 0x00,
  0x48, 0x00, 0x00, 0x00, 0x27, 0x00, 0x00, 0x00, 0x00, 0x00, 0x00, 0x09,
  0xf0, 0x00, 0x00, 0x00, 0x04, 0x00, 0x00, 0x00, 0xff, 0xff, 0xff, 0xff,
  0x01, 0x00, 0x00, 0x00, 0x19, 0x00, 0x00, 0x00, 0x20, 0x00, 0x00, 0x00,
  0x2c, 0xdc, 0xff, 0xff, 0x08, 0x00, 0x00, 0x00, 0x14, 0x00, 0x00, 0x00,
  0x01, 0x00, 0x00, 0x00, 0x80, 0xff, 0xff, 0xff, 0xff, 0xff, 0xff, 0xff,
  0x00, 0x00, 0x00, 0x00, 0x01, 0x00, 0x00, 0x00, 0xf5, 0xfb, 0xcd, 0x3c,
  0xac, 0x00, 0x00, 0x00, 0x66, 0x75, 0x6e, 0x63, 0x74, 0x69, 0x6f, 0x6e,
  0x61, 0x6c, 0x5f, 0x31, 0x2f, 0x63, 0x6f, 0x6e, 0x76, 0x31, 0x64, 0x5f,
  0x32, 0x5f, 0x31, 0x2f, 0x52, 0x65, 0x6c, 0x75, 0x3b, 0x66, 0x75, 0x6e,
  0x63, 0x74, 0x69, 0x6f, 0x6e, 0x61, 0x6c, 0x5f, 0x31, 0x2f, 0x63, 0x6f,
  0x6e, 0x76, 0x31, 0x64, 0x5f, 0x32, 0x5f, 0x31, 0x2f, 0x42, 0x69, 0x61,
  0x73, 0x41, 0x64, 0x64, 0x3b, 0x66, 0x75, 0x6e, 0x63, 0x74, 0x69, 0x6f,
  0x6e, 0x61, 0x6c, 0x5f, 0x31, 0x2f, 0x63, 0x6f, 0x6e, 0x76, 0x31, 0x64,
  0x5f, 0x32, 0x5f, 0x31, 0x2f, 0x63, 0x6f, 0x6e, 0x76, 0x6f, 0x6c, 0x75,
  0x74, 0x69, 0x6f, 0x6e, 0x2f, 0x53, 0x71, 0x75, 0x65, 0x65, 0x7a, 0x65,
  0x3b, 0x66, 0x75, 0x6e, 0x63, 0x74, 0x69, 0x6f, 0x6e, 0x61, 0x6c, 0x5f,
  0x31, 0x2f, 0x63, 0x6f, 0x6e, 0x76, 0x31, 0x64, 0x5f, 0x32, 0x5f, 0x31,
  0x2f, 0x53, 0x71, 0x75, 0x65, 0x65, 0x7a, 0x65, 0x3b, 0x66, 0x75, 0x6e,
  0x63, 0x74, 0x69, 0x6f, 0x6e, 0x61, 0x6c, 0x5f, 0x31, 0x2f, 0x63, 0x6f,
  0x6e, 0x76, 0x31, 0x64, 0x5f, 0x32, 0x5f, 0x31, 0x2f, 0x63, 0x6f, 0x6e,
  0x76, 0x6f, 0x6c, 0x75, 0x74, 0x69, 0x6f, 0x6e, 0x00, 0x00, 0x00, 0x00,
  0x04, 0x00, 0x00, 0x00, 0x01, 0x00, 0x00, 0x00, 0x01, 0x00, 0x00, 0x00,
  0x19, 0x00, 0x00, 0x00, 0x20, 0x00, 0x00, 0x00, 0x5e, 0xdd, 0xff, 0xff,
  0x00, 0x00, 0x00, 0x01, 0x18, 0x00, 0x00, 0x00, 0x28, 0x00, 0x00, 0x00,
  0x44, 0x00, 0x00, 0x00, 0x26, 0x00, 0x00, 0x00, 0x00, 0x00, 0x00, 0x09,
  0x6c, 0x00, 0x00, 0x00, 0x04, 0x00, 0x00, 0x00, 0xff, 0xff, 0xff, 0xff,
  0x01, 0x00, 0x00, 0x00, 0x19, 0x00, 0x00, 0x00, 0x20, 0x00, 0x00, 0x00,
  0x4c, 0xdd, 0xff, 0xff, 0x08, 0x00, 0x00, 0x00, 0x10, 0x00, 0x00, 0x00,
  0x01, 0x00, 0x00, 0x00, 0x95, 0xff, 0xff, 0xff, 0xff, 0xff, 0xff, 0xff,
  0x01, 0x00, 0x00, 0x00, 0x5b, 0x7c, 0x95, 0x3c, 0x2e, 0x00, 0x00, 0x00,
  0x66, 0x75, 0x6e, 0x63, 0x74, 0x69, 0x6f, 0x6e, 0x61, 0x6c, 0x5f, 0x31,
  0x2f, 0x63, 0x6f, 0x6e, 0x76, 0x31, 0x64, 0x5f, 0x32, 0x5f, 0x31, 0x2f,
  0x63, 0x6f, 0x6e, 0x76, 0x6f, 0x6c, 0x75, 0x74, 0x69, 0x6f, 0x6e, 0x2f,
  0x45, 0x78, 0x70, 0x61, 0x6e, 0x64, 0x44, 0x69, 0x6d, 0x73, 0x00, 0x00,
  0x04, 0x00, 0x00, 0x00, 0x01, 0x00, 0x00, 0x00, 0x01, 0x00, 0x00, 0x00,
  0x19, 0x00, 0x00, 0x00, 0x20, 0x00, 0x00, 0x00, 0xfa, 0xdd, 0xff, 0xff,
  0x00, 0x00, 0x00, 0x01, 0x18, 0x00, 0x00, 0x00, 0x24, 0x00, 0x00, 0x00,
  0x44, 0x00, 0x00, 0x00, 0x25, 0x00, 0x00, 0x00, 0x00, 0x00, 0x00, 0x09,
  0x70, 0x00, 0x00, 0x00, 0x03, 0x00, 0x00, 0x00, 0xff, 0xff, 0xff, 0xff,
  0x19, 0x00, 0x00, 0x00, 0x20, 0x00, 0x00, 0x00, 0xe4, 0xdd, 0xff, 0xff,
  0x08, 0x00, 0x00, 0x00, 0x14, 0x00, 0x00, 0x00, 0x01, 0x00, 0x00, 0x00,
  0x95, 0xff, 0xff, 0xff, 0xff, 0xff, 0xff, 0xff, 0x00, 0x00, 0x00, 0x00,
  0x01, 0x00, 0x00, 0x00, 0x5b, 0x7c, 0x95, 0x3c, 0x30, 0x00, 0x00, 0x00,
  0x66, 0x75, 0x6e, 0x63, 0x74, 0x69, 0x6f, 0x6e, 0x61, 0x6c, 0x5f, 0x31,
  0x2f, 0x6d, 0x61, 0x78, 0x5f, 0x70, 0x6f, 0x6f, 0x6c, 0x69, 0x6e, 0x67,
  0x31, 0x64, 0x5f, 0x31, 0x5f, 0x32, 0x2f, 0x4d, 0x61, 0x78, 0x50, 0x6f,
  0x6f, 0x6c, 0x31, 0x64, 0x2f, 0x53, 0x71, 0x75, 0x65, 0x65, 0x7a, 0x65,
  0x00, 0x00, 0x00, 0x00, 0x03, 0x00, 0x00, 0x00, 0x01, 0x00, 0x00, 0x00,
  0x19, 0x00, 0x00, 0x00, 0x20, 0x00, 0x00, 0x00, 0x96, 0xde, 0xff, 0xff,
  0x00, 0x00, 0x00, 0x01, 0x18, 0x00, 0x00, 0x00, 0x28, 0x00, 0x00, 0x00,
  0x44, 0x00, 0x00, 0x00, 0x24, 0x00, 0x00, 0x00, 0x00, 0x00, 0x00, 0x09,
  0x68, 0x00, 0x00, 0x00, 0x04, 0x00, 0x00, 0x00, 0xff, 0xff, 0xff, 0xff,
  0x01, 0x00, 0x00, 0x00, 0x19, 0x00, 0x00, 0x00, 0x20, 0x00, 0x00, 0x00,
  0x84, 0xde, 0xff, 0xff, 0x08, 0x00, 0x00, 0x00, 0x10, 0x00, 0x00, 0x00,
  0x01, 0x00, 0x00, 0x00, 0x95, 0xff, 0xff, 0xff, 0xff, 0xff, 0xff, 0xff,
  0x01, 0x00, 0x00, 0x00, 0x5b, 0x7c, 0x95, 0x3c, 0x28, 0x00, 0x00, 0x00,
  0x66, 0x75, 0x6e, 0x63, 0x74, 0x69, 0x6f, 0x6e, 0x61, 0x6c, 0x5f, 0x31,
  0x2f, 0x6d, 0x61, 0x78, 0x5f, 0x70, 0x6f, 0x6f, 0x6c, 0x69, 0x6e, 0x67,
  0x31, 0x64, 0x5f, 0x31, 0x5f, 0x32, 0x2f, 0x4d, 0x61, 0x78, 0x50, 0x6f,
  0x6f, 0x6c, 0x31, 0x64, 0x00, 0x00, 0x00, 0x00, 0x04, 0x00, 0x00, 0x00,
  0x01, 0x00, 0x00, 0x00, 0x01, 0x00, 0x00, 0x00, 0x19, 0x00, 0x00, 0x00,
  0x20, 0x00, 0x00, 0x00, 0x2e, 0xdf, 0xff, 0xff, 0x00, 0x00, 0x00, 0x01,
  0x18, 0x00, 0x00, 0x00, 0x28, 0x00, 0x00, 0x00, 0x48, 0x00, 0x00, 0x00,
  0x23, 0x00, 0x00, 0x00, 0x00, 0x00, 0x00, 0x09, 0x74, 0x00, 0x00, 0x00,
  0x04, 0x00, 0x00, 0x00, 0xff, 0xff, 0xff, 0xff, 0x01, 0x00, 0x00, 0x00,
  0x32, 0x00, 0x00, 0x00, 0x20, 0x00, 0x00, 0x00, 0x1c, 0xdf, 0xff, 0xff,
  0x08, 0x00, 0x00, 0x00, 0x14, 0x00, 0x00, 0x00, 0x01, 0x00, 0x00, 0x00,
  0x95, 0xff, 0xff, 0xff, 0xff, 0xff, 0xff, 0xff, 0x00, 0x00, 0x00, 0x00,
  0x01, 0x00, 0x00, 0x00, 0x5b, 0x7c, 0x95, 0x3c, 0x33, 0x00, 0x00, 0x00,
  0x66, 0x75, 0x6e, 0x63, 0x74, 0x69, 0x6f, 0x6e, 0x61, 0x6c, 0x5f, 0x31,
  0x2f, 0x6d, 0x61, 0x78, 0x5f, 0x70, 0x6f, 0x6f, 0x6c, 0x69, 0x6e, 0x67,
  0x31, 0x64, 0x5f, 0x31, 0x5f, 0x32, 0x2f, 0x4d, 0x61, 0x78, 0x50, 0x6f,
  0x6f, 0x6c, 0x31, 0x64, 0x2f, 0x45, 0x78, 0x70, 0x61, 0x6e, 0x64, 0x44,
  0x69, 0x6d, 0x73, 0x00, 0x04, 0x00, 0x00, 0x00, 0x01, 0x00, 0x00, 0x00,
  0x01, 0x00, 0x00, 0x00, 0x32, 0x00, 0x00, 0x00, 0x20, 0x00, 0x00, 0x00,
  0xd2, 0xdf, 0xff, 0xff, 0x00, 0x00, 0x00, 0x01, 0x18, 0x00, 0x00, 0x00,
  0x24, 0x00, 0x00, 0x00, 0x44, 0x00, 0x00, 0x00, 0x22, 0x00, 0x00, 0x00,
  0x00, 0x00, 0x00, 0x09, 0x98, 0x01, 0x00, 0x00, 0x03, 0x00, 0x00, 0x00,
  0xff, 0xff, 0xff, 0xff, 0x32, 0x00, 0x00, 0x00, 0x20, 0x00, 0x00, 0x00,
  0xbc, 0xdf, 0xff, 0xff, 0x08, 0x00, 0x00, 0x00, 0x14, 0x00, 0x00, 0x00,
  0x01, 0x00, 0x00, 0x00, 0x95, 0xff, 0xff, 0xff, 0xff, 0xff, 0xff, 0xff,
  0x00, 0x00, 0x00, 0x00, 0x01, 0x00, 0x00, 0x00, 0x5b, 0x7c, 0x95, 0x3c,
  0x59, 0x01, 0x00, 0x00, 0x66, 0x75, 0x6e, 0x63, 0x74, 0x69, 0x6f, 0x6e,
  0x61, 0x6c, 0x5f, 0x31, 0x2f, 0x62, 0x61, 0x74, 0x63, 0x68, 0x5f, 0x6e,
  0x6f, 0x72, 0x6d, 0x61, 0x6c, 0x69, 0x7a, 0x61, 0x74, 0x69, 0x6f, 0x6e,
  0x5f, 0x31, 0x5f, 0x32, 0x2f, 0x62, 0x61, 0x74, 0x63, 0x68, 0x6e, 0x6f,
  0x72, 0x6d, 0x2f, 0x61, 0x64, 0x64, 0x5f, 0x31, 0x3b, 0x66, 0x75, 0x6e,
  0x63, 0x74, 0x69, 0x6f, 0x6e, 0x61, 0x6c, 0x5f, 0x31, 0x2f, 0x63, 0x6f,
  0x6e, 0x76, 0x31, 0x64, 0x5f, 0x31, 0x5f, 0x32, 0x2f, 0x63, 0x6f, 0x6e,
  0x76, 0x6f, 0x6c, 0x75, 0x74, 0x69, 0x6f, 0x6e, 0x2f, 0x53, 0x71, 0x75,
  0x65, 0x65, 0x7a, 0x65, 0x3b, 0x66, 0x75, 0x6e, 0x63, 0x74, 0x69, 0x6f,
  0x6e, 0x61, 0x6c, 0x5f, 0x31, 0x2f, 0x62, 0x61, 0x74, 0x63, 0x68, 0x5f,
  0x6e, 0x6f, 0x72, 0x6d, 0x61, 0x6c, 0x69, 0x7a, 0x61, 0x74, 0x69, 0x6f,
  0x6e, 0x5f, 0x31, 0x5f, 0x32, 0x2f, 0x62, 0x61, 0x74, 0x63, 0x68, 0x6e,
  0x6f, 0x72, 0x6d, 0x2f, 0x6d, 0x75, 0x6c, 0x5f, 0x31, 0x3b, 0x66, 0x75,
  0x6e, 0x63, 0x74, 0x69, 0x6f, 0x6e, 0x61, 0x6c, 0x5f, 0x31, 0x2f, 0x63,
  0x6f, 0x6e, 0x76, 0x31, 0x64, 0x5f, 0x31, 0x5f, 0x32, 0x2f, 0x52, 0x65,
  0x6c, 0x75, 0x3b, 0x66, 0x75, 0x6e, 0x63, 0x74, 0x69, 0x6f, 0x6e, 0x61,
  0x6c, 0x5f, 0x31, 0x2f, 0x63, 0x6f, 0x6e, 0x76, 0x31, 0x64, 0x5f, 0x31,
  0x5f, 0x32, 0x2f, 0x42, 0x69, 0x61, 0x73, 0x41, 0x64, 0x64, 0x3b, 0x66,
  0x75, 0x6e, 0x63, 0x74, 0x69, 0x6f, 0x6e, 0x61, 0x6c, 0x5f, 0x31, 0x2f,
  0x63, 0x6f, 0x6e, 0x76, 0x31, 0x64, 0x5f, 0x31, 0x5f, 0x32, 0x2f, 0x53,
  0x71, 0x75, 0x65, 0x65, 0x7a, 0x65, 0x3b, 0x66, 0x75, 0x6e, 0x63, 0x74,
  0x69, 0x6f, 0x6e, 0x61, 0x6c, 0x5f, 0x31, 0x2f, 0x62, 0x61, 0x74, 0x63,
  0x68, 0x5f, 0x6e, 0x6f, 0x72, 0x6d, 0x61, 0x6c, 0x69, 0x7a, 0x61, 0x74,
  0x69, 0x6f, 0x6e, 0x5f, 0x31, 0x5f, 0x32, 0x2f, 0x62, 0x61, 0x74, 0x63,
  0x68, 0x6e, 0x6f, 0x72, 0x6d, 0x2f, 0x6d, 0x75, 0x6c, 0x3b, 0x66, 0x75,
  0x6e, 0x63, 0x74, 0x69, 0x6f, 0x6e, 0x61, 0x6c, 0x5f, 0x31, 0x2f, 0x62,
  0x61, 0x74, 0x63, 0x68, 0x5f, 0x6e, 0x6f, 0x72, 0x6d, 0x61, 0x6c, 0x69,
  0x7a, 0x61, 0x74, 0x69, 0x6f, 0x6e, 0x5f, 0x31, 0x5f, 0x32, 0x2f, 0x62,
  0x61, 0x74, 0x63, 0x68, 0x6e, 0x6f, 0x72, 0x6d, 0x2f, 0x73, 0x75, 0x62,
  0x31, 0x00, 0x00, 0x00, 0x03, 0x00, 0x00, 0x00, 0x01, 0x00, 0x00, 0x00,
  0x32, 0x00, 0x00, 0x00, 0x20, 0x00, 0x00, 0x00, 0x96, 0xe1, 0xff, 0xff,
  0x00, 0x00, 0x00, 0x01, 0x18, 0x00, 0x00, 0x00, 0x28, 0x00, 0x00, 0x00,
  0x44, 0x00, 0x00, 0x00, 0x21, 0x00, 0x00, 0x00, 0x00, 0x00, 0x00, 0x09,
  0x98, 0x01, 0x00, 0x00, 0x04, 0x00, 0x00, 0x00, 0xff, 0xff, 0xff, 0xff,
  0x01, 0x00, 0x00, 0x00, 0x32, 0x00, 0x00, 0x00, 0x20, 0x00, 0x00, 0x00,
  0x84, 0xe1, 0xff, 0xff, 0x08, 0x00, 0x00, 0x00, 0x10, 0x00, 0x00, 0x00,
  0x01, 0x00, 0x00, 0x00, 0x95, 0xff, 0xff, 0xff, 0xff, 0xff, 0xff, 0xff,
  0x01, 0x00, 0x00, 0x00, 0x5b, 0x7c, 0x95, 0x3c, 0x58, 0x01, 0x00, 0x00,
  0x66, 0x75, 0x6e, 0x63, 0x74, 0x69, 0x6f, 0x6e, 0x61, 0x6c, 0x5f, 0x31,
  0x2f, 0x62, 0x61, 0x74, 0x63, 0x68, 0x5f, 0x6e, 0x6f, 0x72, 0x6d, 0x61,
  0x6c, 0x69, 0x7a, 0x61, 0x74, 0x69, 0x6f, 0x6e, 0x5f, 0x31, 0x5f, 0x32,
  0x2f, 0x62, 0x61, 0x74, 0x63, 0x68, 0x6e, 0x6f, 0x72, 0x6d, 0x2f, 0x61,
  0x64, 0x64, 0x5f, 0x31, 0x3b, 0x66, 0x75, 0x6e, 0x63, 0x74, 0x69, 0x6f,
  0x6e, 0x61, 0x6c, 0x5f, 0x31, 0x2f, 0x63, 0x6f, 0x6e, 0x76, 0x31, 0x64,
  0x5f, 0x31, 0x5f, 0x32, 0x2f, 0x63, 0x6f, 0x6e, 0x76, 0x6f, 0x6c, 0x75,
  0x74, 0x69, 0x6f, 0x6e, 0x2f, 0x53, 0x71, 0x75, 0x65, 0x65, 0x7a, 0x65,
  0x3b, 0x66, 0x75, 0x6e, 0x63, 0x74, 0x69, 0x6f, 0x6e, 0x61, 0x6c, 0x5f,
  0x31, 0x2f, 0x62, 0x61, 0x74, 0x63, 0x68, 0x5f, 0x6e, 0x6f, 0x72, 0x6d,
  0x61, 0x6c, 0x69, 0x7a, 0x61, 0x74, 0x69, 0x6f, 0x6e, 0x5f, 0x31, 0x5f,
  0x32, 0x2f, 0x62, 0x61, 0x74, 0x63, 0x68, 0x6e, 0x6f, 0x72, 0x6d, 0x2f,
  0x6d, 0x75, 0x6c, 0x5f, 0x31, 0x3b, 0x66, 0x75, 0x6e, 0x63, 0x74, 0x69,
  0x6f, 0x6e, 0x61, 0x6c, 0x5f, 0x31, 0x2f, 0x63, 0x6f, 0x6e, 0x76, 0x31,
  0x64, 0x5f, 0x31, 0x5f, 0x32, 0x2f, 0x52, 0x65, 0x6c, 0x75, 0x3b, 0x66,
  0x75, 0x6e, 0x63, 0x74, 0x69, 0x6f, 0x6e, 0x61, 0x6c, 0x5f, 0x31, 0x2f,
  0x63, 0x6f, 0x6e, 0x76, 0x31, 0x64, 0x5f, 0x31, 0x5f, 0x32, 0x2f, 0x42,
  0x69, 0x61, 0x73, 0x41, 0x64, 0x64, 0x3b, 0x66, 0x75, 0x6e, 0x63, 0x74,
  0x69, 0x6f, 0x6e, 0x61, 0x6c, 0x5f, 0x31, 0x2f, 0x63, 0x6f, 0x6e, 0x76,
  0x31, 0x64, 0x5f, 0x31, 0x5f, 0x32, 0x2f, 0x53, 0x71, 0x75, 0x65, 0x65,
  0x7a, 0x65, 0x3b, 0x66, 0x75, 0x6e, 0x63, 0x74, 0x69, 0x6f, 0x6e, 0x61,
  0x6c, 0x5f, 0x31, 0x2f, 0x62, 0x61, 0x74, 0x63, 0x68, 0x5f, 0x6e, 0x6f,
  0x72, 0x6d, 0x61, 0x6c, 0x69, 0x7a, 0x61, 0x74, 0x69, 0x6f, 0x6e, 0x5f,
  0x31, 0x5f, 0x32, 0x2f, 0x62, 0x61, 0x74, 0x63, 0x68, 0x6e, 0x6f, 0x72,
  0x6d, 0x2f, 0x6d, 0x75, 0x6c, 0x3b, 0x66, 0x75, 0x6e, 0x63, 0x74, 0x69,
  0x6f, 0x6e, 0x61, 0x6c, 0x5f, 0x31, 0x2f, 0x62, 0x61, 0x74, 0x63, 0x68,
  0x5f, 0x6e, 0x6f, 0x72, 0x6d, 0x61, 0x6c, 0x69, 0x7a, 0x61, 0x74, 0x69,
  0x6f, 0x6e, 0x5f, 0x31, 0x5f, 0x32, 0x2f, 0x62, 0x61, 0x74, 0x63, 0x68,
  0x6e, 0x6f, 0x72, 0x6d, 0x2f, 0x73, 0x75, 0x62, 0x00, 0x00, 0x00, 0x00,
  0x04, 0x00, 0x00, 0x00, 0x01, 0x00, 0x00, 0x00, 0x01, 0x00, 0x00, 0x00,
  0x32, 0x00, 0x00, 0x00, 0x20, 0x00, 0x00, 0x00, 0x5e, 0xe3, 0xff, 0xff,
  0x00, 0x00, 0x00, 0x01, 0x18, 0x00, 0x00, 0x00, 0x28, 0x00, 0x00, 0x00,
  0x44, 0x00, 0x00, 0x00, 0x20, 0x00, 0x00, 0x00, 0x00, 0x00, 0x00, 0x09,
  0x30, 0x01, 0x00, 0x00, 0x04, 0x00, 0x00, 0x00, 0xff, 0xff, 0xff, 0xff,
  0x01, 0x00, 0x00, 0x00, 0x32, 0x00, 0x00, 0x00, 0x20, 0x00, 0x00, 0x00,
  0x4c, 0xe3, 0xff, 0xff, 0x08, 0x00, 0x00, 0x00, 0x10, 0x00, 0x00, 0x00,
  0x01, 0x00, 0x00, 0x00, 0x94, 0xff, 0xff, 0xff, 0xff, 0xff, 0xff, 0xff,
  0x01, 0x00, 0x00, 0x00, 0xf6, 0xc9, 0x9f, 0x3c, 0xf0, 0x00, 0x00, 0x00,
  0x66, 0x75, 0x6e, 0x63, 0x74, 0x69, 0x6f, 0x6e, 0x61, 0x6c, 0x5f, 0x31,
  0x2f, 0x62, 0x61, 0x74, 0x63, 0x68, 0x5f, 0x6e, 0x6f, 0x72, 0x6d, 0x61,
  0x6c, 0x69, 0x7a, 0x61, 0x74, 0x69, 0x6f, 0x6e, 0x5f, 0x31, 0x5f, 0x32,
  0x2f, 0x62, 0x61, 0x74, 0x63, 0x68, 0x6e, 0x6f, 0x72, 0x6d, 0x2f, 0x6d,
  0x75, 0x6c, 0x5f, 0x31, 0x3b, 0x66, 0x75, 0x6e, 0x63, 0x74, 0x69, 0x6f,
  0x6e, 0x61, 0x6c, 0x5f, 0x31, 0x2f, 0x63, 0x6f, 0x6e, 0x76, 0x31, 0x64,
  0x5f, 0x31, 0x5f, 0x32, 0x2f, 0x63, 0x6f, 0x6e, 0x76, 0x6f, 0x6c, 0x75,
  0x74, 0x69, 0x6f, 0x6e, 0x2f, 0x53, 0x71, 0x75, 0x65, 0x65, 0x7a, 0x65,
  0x3b, 0x66, 0x75, 0x6e, 0x63, 0x74, 0x69, 0x6f, 0x6e, 0x61, 0x6c, 0x5f,
  0x31, 0x2f, 0x63, 0x6f, 0x6e, 0x76, 0x31, 0x64, 0x5f, 0x31, 0x5f, 0x32,
  0x2f, 0x52, 0x65, 0x6c, 0x75, 0x3b, 0x66, 0x75, 0x6e, 0x63, 0x74, 0x69,
  0x6f, 0x6e, 0x61, 0x6c, 0x5f, 0x31, 0x2f, 0x63, 0x6f, 0x6e, 0x76, 0x31,
  0x64, 0x5f, 0x31, 0x5f, 0x32, 0x2f, 0x42, 0x69, 0x61, 0x73, 0x41, 0x64,
  0x64, 0x3b, 0x66, 0x75, 0x6e, 0x63, 0x74, 0x69, 0x6f, 0x6e, 0x61, 0x6c,
  0x5f, 0x31, 0x2f, 0x63, 0x6f, 0x6e, 0x76, 0x31, 0x64, 0x5f, 0x31, 0x5f,
  0x32, 0x2f, 0x53, 0x71, 0x75, 0x65, 0x65, 0x7a, 0x65, 0x3b, 0x66, 0x75,
  0x6e, 0x63, 0x74, 0x69, 0x6f, 0x6e, 0x61, 0x6c, 0x5f, 0x31, 0x2f, 0x62,
  0x61, 0x74, 0x63, 0x68, 0x5f, 0x6e, 0x6f, 0x72, 0x6d, 0x61, 0x6c, 0x69,
  0x7a, 0x61, 0x74, 0x69, 0x6f, 0x6e, 0x5f, 0x31, 0x5f, 0x32, 0x2f, 0x62,
  0x61, 0x74, 0x63, 0x68, 0x6e, 0x6f, 0x72, 0x6d, 0x2f, 0x6d, 0x75, 0x6c,
  0x00, 0x00, 0x00, 0x00, 0x04, 0x00, 0x00, 0x00, 0x01, 0x00, 0x00, 0x00,
  0x01, 0x00, 0x00, 0x00, 0x32, 0x00, 0x00, 0x00, 0x20, 0x00, 0x00, 0x00,
  0xbe, 0xe4, 0xff, 0xff, 0x00, 0x00, 0x00, 0x01, 0x18, 0x00, 0x00, 0x00,
  0x28, 0x00, 0x00, 0x00, 0x48, 0x00, 0x00, 0x00, 0x1f, 0x00, 0x00, 0x00,
  0x00, 0x00, 0x00, 0x09, 0xf0, 0x00, 0x00, 0x00, 0x04, 0x00, 0x00, 0x00,
  0xff, 0xff, 0xff, 0xff, 0x01, 0x00, 0x00, 0x00, 0x32, 0x00, 0x00, 0x00,
  0x20, 0x00, 0x00, 0x00, 0xac, 0xe4, 0xff, 0xff, 0x08, 0x00, 0x00, 0x00,
  0x14, 0x00, 0x00, 0x00, 0x01, 0x00, 0x00, 0x00, 0x80, 0xff, 0xff, 0xff,
  0xff, 0xff, 0xff, 0xff, 0x00, 0x00, 0x00, 0x00, 0x01, 0x00, 0x00, 0x00,
  0x59, 0x4b, 0x93, 0x3c, 0xac, 0x00, 0x00, 0x00, 0x66, 0x75, 0x6e, 0x63,
  0x74, 0x69, 0x6f, 0x6e, 0x61, 0x6c, 0x5f, 0x31, 0x2f, 0x63, 0x6f, 0x6e,
  0x76, 0x31, 0x64, 0x5f, 0x31, 0x5f, 0x32, 0x2f, 0x52, 0x65, 0x6c, 0x75,
  0x3b, 0x66, 0x75, 0x6e, 0x63, 0x74, 0x69, 0x6f, 0x6e, 0x61, 0x6c, 0x5f,
  0x31, 0x2f, 0x63, 0x6f, 0x6e, 0x76, 0x31, 0x64, 0x5f, 0x31, 0x5f, 0x32,
  0x2f, 0x42, 0x69, 0x61, 0x73, 0x41, 0x64, 0x64, 0x3b, 0x66, 0x75, 0x6e,
  0x63, 0x74, 0x69, 0x6f, 0x6e, 0x61, 0x6c, 0x5f, 0x31, 0x2f, 0x63, 0x6f,
  0x6e, 0x76, 0x31, 0x64, 0x5f, 0x31, 0x5f, 0x32, 0x2f, 0x63, 0x6f, 0x6e,
  0x76, 0x6f, 0x6c, 0x75, 0x74, 0x69, 0x6f, 0x6e, 0x2f, 0x53, 0x71, 0x75,
  0x65, 0x65, 0x7a, 0x65, 0x3b, 0x66, 0x75, 0x6e, 0x63, 0x74, 0x69, 0x6f,
  0x6e, 0x61, 0x6c, 0x5f, 0x31, 0x2f, 0x63, 0x6f, 0x6e, 0x76, 0x31, 0x64,
  0x5f, 0x31, 0x5f, 0x32, 0x2f, 0x53, 0x71, 0x75, 0x65, 0x65, 0x7a, 0x65,
  0x3b, 0x66, 0x75, 0x6e, 0x63, 0x74, 0x69, 0x6f, 0x6e, 0x61, 0x6c, 0x5f,
  0x31, 0x2f, 0x63, 0x6f, 0x6e, 0x76, 0x31, 0x64, 0x5f, 0x31, 0x5f, 0x32,
  0x2f, 0x63, 0x6f, 0x6e, 0x76, 0x6f, 0x6c, 0x75, 0x74, 0x69, 0x6f, 0x6e,
  0x00, 0x00, 0x00, 0x00, 0x04, 0x00, 0x00, 0x00, 0x01, 0x00, 0x00, 0x00,
  0x01, 0x00, 0x00, 0x00, 0x32, 0x00, 0x00, 0x00, 0x20, 0x00, 0x00, 0x00,
  0xde, 0xe5, 0xff, 0xff, 0x00, 0x00, 0x00, 0x01, 0x18, 0x00, 0x00, 0x00,
  0x28, 0x00, 0x00, 0x00, 0x44, 0x00, 0x00, 0x00, 0x1e, 0x00, 0x00, 0x00,
  0x00, 0x00, 0x00, 0x09, 0x6c, 0x00, 0x00, 0x00, 0x04, 0x00, 0x00, 0x00,
  0xff, 0xff, 0xff, 0xff, 0x01, 0x00, 0x00, 0x00, 0x32, 0x00, 0x00, 0x00,
  0x10, 0x00, 0x00, 0x00, 0xcc, 0xe5, 0xff, 0xff, 0x08, 0x00, 0x00, 0x00,
  0x10, 0x00, 0x00, 0x00, 0x01, 0x00, 0x00, 0x00, 0x8e, 0xff, 0xff, 0xff,
  0xff, 0xff, 0xff, 0xff, 0x01, 0x00, 0x00, 0x00, 0xc2, 0x66, 0xcb, 0x3c,
  0x2e, 0x00, 0x00, 0x00, 0x66, 0x75, 0x6e, 0x63, 0x74, 0x69, 0x6f, 0x6e,
  0x61, 0x6c, 0x5f, 0x31, 0x2f, 0x63, 0x6f, 0x6e, 0x76, 0x31, 0x64, 0x5f,
  0x31, 0x5f, 0x32, 0x2f, 0x63, 0x6f, 0x6e, 0x76, 0x6f, 0x6c, 0x75, 0x74,
  0x69, 0x6f, 0x6e, 0x2f, 0x45, 0x78, 0x70, 0x61, 0x6e, 0x64, 0x44, 0x69,
  0x6d, 0x73, 0x00, 0x00, 0x04, 0x00, 0x00, 0x00, 0x01, 0x00, 0x00, 0x00,
  0x01, 0x00, 0x00, 0x00, 0x32, 0x00, 0x00, 0x00, 0x10, 0x00, 0x00, 0x00,
  0x7a, 0xe6, 0xff, 0xff, 0x00, 0x00, 0x00, 0x01, 0x18, 0x00, 0x00, 0x00,
  0x24, 0x00, 0x00, 0x00, 0x40, 0x00, 0x00, 0x00, 0x1d, 0x00, 0x00, 0x00,
  0x00, 0x00, 0x00, 0x09, 0x68, 0x00, 0x00, 0x00, 0x03, 0x00, 0x00, 0x00,
  0xff, 0xff, 0xff, 0xff, 0x32, 0x00, 0x00, 0x00, 0x10, 0x00, 0x00, 0x00,
  0x64, 0xe6, 0xff, 0xff, 0x08, 0x00, 0x00, 0x00, 0x10, 0x00, 0x00, 0x00,
  0x01, 0x00, 0x00, 0x00, 0x8e, 0xff, 0xff, 0xff, 0xff, 0xff, 0xff, 0xff,
  0x01, 0x00, 0x00, 0x00, 0xc2, 0x66, 0xcb, 0x3c, 0x2e, 0x00, 0x00, 0x00,
  0x66, 0x75, 0x6e, 0x63, 0x74, 0x69, 0x6f, 0x6e, 0x61, 0x6c, 0x5f, 0x31,
  0x2f, 0x6d, 0x61, 0x78, 0x5f, 0x70, 0x6f, 0x6f, 0x6c, 0x69, 0x6e, 0x67,
  0x31, 0x64, 0x5f, 0x31, 0x2f, 0x4d, 0x61, 0x78, 0x50, 0x6f, 0x6f, 0x6c,
  0x31, 0x64, 0x2f, 0x53, 0x71, 0x75, 0x65, 0x65, 0x7a, 0x65, 0x00, 0x00,
  0x03, 0x00, 0x00, 0x00, 0x01, 0x00, 0x00, 0x00, 0x32, 0x00, 0x00, 0x00,
  0x10, 0x00, 0x00, 0x00, 0x0e, 0xe7, 0xff, 0xff, 0x00, 0x00, 0x00, 0x01,
  0x18, 0x00, 0x00, 0x00, 0x28, 0x00, 0x00, 0x00, 0x48, 0x00, 0x00, 0x00,
  0x1c, 0x00, 0x00, 0x00, 0x00, 0x00, 0x00, 0x09, 0x68, 0x00, 0x00, 0x00,
  0x04, 0x00, 0x00, 0x00, 0xff, 0xff, 0xff, 0xff, 0x01, 0x00, 0x00, 0x00,
  0x32, 0x00, 0x00, 0x00, 0x10, 0x00, 0x00, 0x00, 0xfc, 0xe6, 0xff, 0xff,
  0x08, 0x00, 0x00, 0x00, 0x14, 0x00, 0x00, 0x00, 0x01, 0x00, 0x00, 0x00,
  0x8e, 0xff, 0xff, 0xff, 0xff, 0xff, 0xff, 0xff, 0x00, 0x00, 0x00, 0x00,
  0x01, 0x00, 0x00, 0x00, 0xc2, 0x66, 0xcb, 0x3c, 0x26, 0x00, 0x00, 0x00,
  0x66, 0x75, 0x6e, 0x63, 0x74, 0x69, 0x6f, 0x6e, 0x61, 0x6c, 0x5f, 0x31,
  0x2f, 0x6d, 0x61, 0x78, 0x5f, 0x70, 0x6f, 0x6f, 0x6c, 0x69, 0x6e, 0x67,
  0x31, 0x64, 0x5f, 0x31, 0x2f, 0x4d, 0x61, 0x78, 0x50, 0x6f, 0x6f, 0x6c,
  0x31, 0x64, 0x00, 0x00, 0x04, 0x00, 0x00, 0x00, 0x01, 0x00, 0x00, 0x00,
  0x01, 0x00, 0x00, 0x00, 0x32, 0x00, 0x00, 0x00, 0x10, 0x00, 0x00, 0x00,
  0xa6, 0xe7, 0xff, 0xff, 0x00, 0x00, 0x00, 0x01, 0x18, 0x00, 0x00, 0x00,
  0x28, 0x00, 0x00, 0x00, 0x48, 0x00, 0x00, 0x00, 0x1b, 0x00, 0x00, 0x00,
  0x00, 0x00, 0x00, 0x09, 0x74, 0x00, 0x00, 0x00, 0x04, 0x00, 0x00, 0x00,
  0xff, 0xff, 0xff, 0xff, 0x01, 0x00, 0x00, 0x00, 0x64, 0x00, 0x00, 0x00,
  0x10, 0x00, 0x00, 0x00, 0x94, 0xe7, 0xff, 0xff, 0x08, 0x00, 0x00, 0x00,
  0x14, 0x00, 0x00, 0x00, 0x01, 0x00, 0x00, 0x00, 0x8e, 0xff, 0xff, 0xff,
  0xff, 0xff, 0xff, 0xff, 0x00, 0x00, 0x00, 0x00, 0x01, 0x00, 0x00, 0x00,
  0xc2, 0x66, 0xcb, 0x3c, 0x31, 0x00, 0x00, 0x00, 0x66, 0x75, 0x6e, 0x63,
  0x74, 0x69, 0x6f, 0x6e, 0x61, 0x6c, 0x5f, 0x31, 0x2f, 0x6d, 0x61, 0x78,
  0x5f, 0x70, 0x6f, 0x6f, 0x6c, 0x69, 0x6e, 0x67, 0x31, 0x64, 0x5f, 0x31,
  0x2f, 0x4d, 0x61, 0x78, 0x50, 0x6f, 0x6f, 0x6c, 0x31, 0x64, 0x2f, 0x45,
  0x78, 0x70, 0x61, 0x6e, 0x64, 0x44, 0x69, 0x6d, 0x73, 0x00, 0x00, 0x00,
  0x04, 0x00, 0x00, 0x00, 0x01, 0x00, 0x00, 0x00, 0x01, 0x00, 0x00, 0x00,
  0x64, 0x00, 0x00, 0x00, 0x10, 0x00, 0x00, 0x00, 0x4a, 0xe8, 0xff, 0xff,
  0x00, 0x00, 0x00, 0x01, 0x18, 0x00, 0x00, 0x00, 0x24, 0x00, 0x00, 0x00,
  0x44, 0x00, 0x00, 0x00, 0x1a, 0x00, 0x00, 0x00, 0x00, 0x00, 0x00, 0x09,
  0x88, 0x01, 0x00, 0x00, 0x03, 0x00, 0x00, 0x00, 0xff, 0xff, 0xff, 0xff,
  0x64, 0x00, 0x00, 0x00, 0x10, 0x00, 0x00, 0x00, 0x34, 0xe8, 0xff, 0xff,
  0x08, 0x00, 0x00, 0x00, 0x14, 0x00, 0x00, 0x00, 0x01, 0x00, 0x00, 0x00,
  0x8e, 0xff, 0xff, 0xff, 0xff, 0xff, 0xff, 0xff, 0x00, 0x00, 0x00, 0x00,
  0x01, 0x00, 0x00, 0x00, 0xc2, 0x66, 0xcb, 0x3c, 0x49, 0x01, 0x00, 0x00,
  0x66, 0x75, 0x6e, 0x63, 0x74, 0x69, 0x6f, 0x6e, 0x61, 0x6c, 0x5f, 0x31,
  0x2f, 0x62, 0x61, 0x74, 0x63, 0x68, 0x5f, 0x6e, 0x6f, 0x72, 0x6d, 0x61,
  0x6c, 0x69, 0x7a, 0x61, 0x74, 0x69, 0x6f, 0x6e, 0x5f, 0x31, 0x2f, 0x62,
  0x61, 0x74, 0x63, 0x68, 0x6e, 0x6f, 0x72, 0x6d, 0x2f, 0x61, 0x64, 0x64,
  0x5f, 0x31, 0x3b, 0x66, 0x75, 0x6e, 0x63, 0x74, 0x69, 0x6f, 0x6e, 0x61,
  0x6c, 0x5f, 0x31, 0x2f, 0x63, 0x6f, 0x6e, 0x76, 0x31, 0x64, 0x5f, 0x31,
  0x2f, 0x63, 0x6f, 0x6e, 0x76, 0x6f, 0x6c, 0x75, 0x74, 0x69, 0x6f, 0x6e,
  0x2f, 0x53, 0x71, 0x75, 0x65, 0x65, 0x7a, 0x65, 0x3b, 0x66, 0x75, 0x6e,
  0x63, 0x74, 0x69, 0x6f, 0x6e, 0x61, 0x6c, 0x5f, 0x31, 0x2f, 0x62, 0x61,
  0x74, 0x63, 0x68, 0x5f, 0x6e, 0x6f, 0x72, 0x6d, 0x61, 0x6c, 0x69, 0x7a,
  0x61, 0x74, 0x69, 0x6f, 0x6e, 0x5f, 0x31, 0x2f, 0x62, 0x61, 0x74, 0x63,
  0x68, 0x6e, 0x6f, 0x72, 0x6d, 0x2f, 0x6d, 0x75, 0x6c, 0x5f, 0x31, 0x3b,
  0x66, 0x75, 0x6e, 0x63, 0x74, 0x69, 0x6f, 0x6e, 0x61, 0x6c, 0x5f, 0x31,
  0x2f, 0x63, 0x6f, 0x6e, 0x76, 0x31, 0x64, 0x5f, 0x31, 0x2f, 0x52, 0x65,
  0x6c, 0x75, 0x3b, 0x66, 0x75, 0x6e, 0x63, 0x74, 0x69, 0x6f, 0x6e, 0x61,
  0x6c, 0x5f, 0x31, 0x2f, 0x63, 0x6f, 0x6e, 0x76, 0x31, 0x64, 0x5f, 0x31,
  0x2f, 0x42, 0x69, 0x61, 0x73, 0x41, 0x64, 0x64, 0x3b, 0x66, 0x75, 0x6e,
  0x63, 0x74, 0x69, 0x6f, 0x6e, 0x61, 0x6c, 0x5f, 0x31, 0x2f, 0x63, 0x6f,
  0x6e, 0x76, 0x31, 0x64, 0x5f, 0x31, 0x2f, 0x53, 0x71, 0x75, 0x65, 0x65,
  0x7a, 0x65, 0x3b, 0x66, 0x75, 0x6e, 0x63, 0x74, 0x69, 0x6f, 0x6e, 0x61,
  0x6c, 0x5f, 0x31, 0x2f, 0x62, 0x61, 0x74, 0x63, 0x68, 0x5f, 0x6e, 0x6f,
  0x72, 0x6d, 0x61, 0x6c, 0x69, 0x7a, 0x61, 0x74, 0x69, 0x6f, 0x6e, 0x5f,
  0x31, 0x2f, 0x62, 0x61, 0x74, 0x63, 0x68, 0x6e, 0x6f, 0x72, 0x6d, 0x2f,
  0x6d, 0x75, 0x6c, 0x3b, 0x66, 0x75, 0x6e, 0x63, 0x74, 0x69, 0x6f, 0x6e,
  0x61, 0x6c, 0x5f, 0x31, 0x2f, 0x62, 0x61, 0x74, 0x63, 0x68, 0x5f, 0x6e,
  0x6f, 0x72, 0x6d, 0x61, 0x6c, 0x69, 0x7a, 0x61, 0x74, 0x69, 0x6f, 0x6e,
  0x5f, 0x31, 0x2f, 0x62, 0x61, 0x74, 0x63, 0x68, 0x6e, 0x6f, 0x72, 0x6d,
  0x2f, 0x73, 0x75, 0x62, 0x31, 0x00, 0x00, 0x00, 0x03, 0x00, 0x00, 0x00,
  0x01, 0x00, 0x00, 0x00, 0x64, 0x00, 0x00, 0x00, 0x10, 0x00, 0x00, 0x00,
  0xfe, 0xe9, 0xff, 0xff, 0x00, 0x00, 0x00, 0x01, 0x18, 0x00, 0x00, 0x00,
  0x28, 0x00, 0x00, 0x00, 0x44, 0x00, 0x00, 0x00, 0x19, 0x00, 0x00, 0x00,
  0x00, 0x00, 0x00, 0x09, 0x88, 0x01, 0x00, 0x00, 0x04, 0x00, 0x00, 0x00,
  0xff, 0xff, 0xff, 0xff, 0x01, 0x00, 0x00, 0x00, 0x64, 0x00, 0x00, 0x00,
  0x10, 0x00, 0x00, 0x00, 0xec, 0xe9, 0xff, 0xff, 0x08, 0x00, 0x00, 0x00,
  0x10, 0x00, 0x00, 0x00, 0x01, 0x00, 0x00, 0x00, 0x8e, 0xff, 0xff, 0xff,
  0xff, 0xff, 0xff, 0xff, 0x01, 0x00, 0x00, 0x00, 0xc2, 0x66, 0xcb, 0x3c,
  0x48, 0x01, 0x00, 0x00, 0x66, 0x75, 0x6e, 0x63, 0x74, 0x69, 0x6f, 0x6e,
  0x61, 0x6c, 0x5f, 0x31, 0x2f, 0x62, 0x61, 0x74, 0x63, 0x68, 0x5f, 0x6e,
  0x6f, 0x72, 0x6d, 0x61, 0x6c, 0x69, 0x7a, 0x61, 0x74, 0x69, 0x6f, 0x6e,
  0x5f, 0x31, 0x2f, 0x62, 0x61, 0x74, 0x63, 0x68, 0x6e, 0x6f, 0x72, 0x6d,
  0x2f, 0x61, 0x64, 0x64, 0x5f, 0x31, 0x3b, 0x66, 0x75, 0x6e, 0x63, 0x74,
  0x69, 0x6f, 0x6e, 0x61, 0x6c, 0x5f, 0x31, 0x2f, 0x63, 0x6f, 0x6e, 0x76,
  0x31, 0x64, 0x5f, 0x31, 0x2f, 0x63, 0x6f, 0x6e, 0x76, 0x6f, 0x6c, 0x75,
  0x74, 0x69, 0x6f, 0x6e, 0x2f, 0x53, 0x71, 0x75, 0x65, 0x65, 0x7a, 0x65,
  0x3b, 0x66, 0x75, 0x6e, 0x63, 0x74, 0x69, 0x6f, 0x6e, 0x61, 0x6c, 0x5f,
  0x31, 0x2f, 0x62, 0x61, 0x74, 0x63, 0x68, 0x5f, 0x6e, 0x6f, 0x72, 0x6d,
  0x61, 0x6c, 0x69, 0x7a, 0x61, 0x74, 0x69, 0x6f, 0x6e, 0x5f, 0x31, 0x2f,
  0x62, 0x61, 0x74, 0x63, 0x68, 0x6e, 0x6f, 0x72, 0x6d, 0x2f, 0x6d, 0x75,
  0x6c, 0x5f, 0x31, 0x3b, 0x66, 0x75, 0x6e, 0x63, 0x74, 0x69, 0x6f, 0x6e,
  0x61, 0x6c, 0x5f, 0x31, 0x2f, 0x63, 0x6f, 0x6e, 0x76, 0x31, 0x64, 0x5f,
  0x31, 0x2f, 0x52, 0x65, 0x6c, 0x75, 0x3b, 0x66, 0x75, 0x6e, 0x63, 0x74,
  0x69, 0x6f, 0x6e, 0x61, 0x6c, 0x5f, 0x31, 0x2f, 0x63, 0x6f, 0x6e, 0x76,
  0x31, 0x64, 0x5f, 0x31, 0x2f, 0x42, 0x69, 0x61, 0x73, 0x41, 0x64, 0x64,
  0x3b, 0x66, 0x75, 0x6e, 0x63, 0x74, 0x69, 0x6f, 0x6e, 0x61, 0x6c, 0x5f,
  0x31, 0x2f, 0x63, 0x6f, 0x6e, 0x76, 0x31, 0x64, 0x5f, 0x31, 0x2f, 0x53,
  0x71, 0x75, 0x65, 0x65, 0x7a, 0x65, 0x3b, 0x66, 0x75, 0x6e, 0x63, 0x74,
  0x69, 0x6f, 0x6e, 0x61, 0x6c, 0x5f, 0x31, 0x2f, 0x62, 0x61, 0x74, 0x63,
  0x68, 0x5f, 0x6e, 0x6f, 0x72, 0x6d, 0x61, 0x6c, 0x69, 0x7a, 0x61, 0x74,
  0x69, 0x6f, 0x6e, 0x5f, 0x31, 0x2f, 0x62, 0x61, 0x74, 0x63, 0x68, 0x6e,
  0x6f, 0x72, 0x6d, 0x2f, 0x6d, 0x75, 0x6c, 0x3b, 0x66, 0x75, 0x6e, 0x63,
  0x74, 0x69, 0x6f, 0x6e, 0x61, 0x6c, 0x5f, 0x31, 0x2f, 0x62, 0x61, 0x74,
  0x63, 0x68, 0x5f, 0x6e, 0x6f, 0x72, 0x6d, 0x61, 0x6c, 0x69, 0x7a, 0x61,
  0x74, 0x69, 0x6f, 0x6e, 0x5f, 0x31, 0x2f, 0x62, 0x61, 0x74, 0x63, 0x68,
  0x6e, 0x6f, 0x72, 0x6d, 0x2f, 0x73, 0x75, 0x62, 0x00, 0x00, 0x00, 0x00,
  0x04, 0x00, 0x00, 0x00, 0x01, 0x00, 0x00, 0x00, 0x01, 0x00, 0x00, 0x00,
  0x64, 0x00, 0x00, 0x00, 0x10, 0x00, 0x00, 0x00, 0xb6, 0xeb, 0xff, 0xff,
  0x00, 0x00, 0x00, 0x01, 0x18, 0x00, 0x00, 0x00, 0x28, 0x00, 0x00, 0x00,
  0x48, 0x00, 0x00, 0x00, 0x18, 0x00, 0x00, 0x00, 0x00, 0x00, 0x00, 0x09,
  0x28, 0x01, 0x00, 0x00, 0x04, 0x00, 0x00, 0x00, 0xff, 0xff, 0xff, 0xff,
  0x01, 0x00, 0x00, 0x00, 0x64, 0x00, 0x00, 0x00, 0x10, 0x00, 0x00, 0x00,
  0xa4, 0xeb, 0xff, 0xff, 0x08, 0x00, 0x00, 0x00, 0x14, 0x00, 0x00, 0x00,
  0x01, 0x00, 0x00, 0x00, 0x8d, 0xff, 0xff, 0xff, 0xff, 0xff, 0xff, 0xff,
  0x00, 0x00, 0x00, 0x00, 0x01, 0x00, 0x00, 0x00, 0xe5, 0x3c, 0xd4, 0x3c,
  0xe4, 0x00, 0x00, 0x00, 0x66, 0x75, 0x6e, 0x63, 0x74, 0x69, 0x6f, 0x6e,
  0x61, 0x6c, 0x5f, 0x31, 0x2f, 0x62, 0x61, 0x74, 0x63, 0x68, 0x5f, 0x6e,
  0x6f, 0x72, 0x6d, 0x61, 0x6c, 0x69, 0x7a, 0x61, 0x74, 0x69, 0x6f, 0x6e,
  0x5f, 0x31, 0x2f, 0x62, 0x61, 0x74, 0x63, 0x68, 0x6e, 0x6f, 0x72, 0x6d,
  0x2f, 0x6d, 0x75, 0x6c, 0x5f, 0x31, 0x3b, 0x66, 0x75, 0x6e, 0x63, 0x74,
  0x69, 0x6f, 0x6e, 0x61, 0x6c, 0x5f, 0x31, 0x2f, 0x63, 0x6f, 0x6e, 0x76,
  0x31, 0x64, 0x5f, 0x31, 0x2f, 0x63, 0x6f, 0x6e, 0x76, 0x6f, 0x6c, 0x75,
  0x74, 0x69, 0x6f, 0x6e, 0x2f, 0x53, 0x71, 0x75, 0x65, 0x65, 0x7a, 0x65,
  0x3b, 0x66, 0x75, 0x6e, 0x63, 0x74, 0x69, 0x6f, 0x6e, 0x61, 0x6c, 0x5f,
  0x31, 0x2f, 0x63, 0x6f, 0x6e, 0x76, 0x31, 0x64, 0x5f, 0x31, 0x2f, 0x52,
  0x65, 0x6c, 0x75, 0x3b, 0x66, 0x75, 0x6e, 0x63, 0x74, 0x69, 0x6f, 0x6e,
  0x61, 0x6c, 0x5f, 0x31, 0x2f, 0x63, 0x6f, 0x6e, 0x76, 0x31, 0x64, 0x5f,
  0x31, 0x2f, 0x42, 0x69, 0x61, 0x73, 0x41, 0x64, 0x64, 0x3b, 0x66, 0x75,
  0x6e, 0x63, 0x74, 0x69, 0x6f, 0x6e, 0x61, 0x6c, 0x5f, 0x31, 0x2f, 0x63,
  0x6f, 0x6e, 0x76, 0x31, 0x64, 0x5f, 0x31, 0x2f, 0x53, 0x71, 0x75, 0x65,
  0x65, 0x7a, 0x65, 0x3b, 0x66, 0x75, 0x6e, 0x63, 0x74, 0x69, 0x6f, 0x6e,
  0x61, 0x6c, 0x5f, 0x31, 0x2f, 0x62, 0x61, 0x74, 0x63, 0x68, 0x5f, 0x6e,
  0x6f, 0x72, 0x6d, 0x61, 0x6c, 0x69, 0x7a, 0x61, 0x74, 0x69, 0x6f, 0x6e,
  0x5f, 0x31, 0x2f, 0x62, 0x61, 0x74, 0x63, 0x68, 0x6e, 0x6f, 0x72, 0x6d,
  0x2f, 0x6d, 0x75, 0x6c, 0x00, 0x00, 0x00, 0x00, 0x04, 0x00, 0x00, 0x00,
  0x01, 0x00, 0x00, 0x00, 0x01, 0x00, 0x00, 0x00, 0x64, 0x00, 0x00, 0x00,
  0x10, 0x00, 0x00, 0x00, 0x0e, 0xed, 0xff, 0xff, 0x00, 0x00, 0x00, 0x01,
  0x18, 0x00, 0x00, 0x00, 0x28, 0x00, 0x00, 0x00, 0x44, 0x00, 0x00, 0x00,
  0x17, 0x00, 0x00, 0x00, 0x00, 0x00, 0x00, 0x09, 0xe0, 0x00, 0x00, 0x00,
  0x04, 0x00, 0x00, 0x00, 0xff, 0xff, 0xff, 0xff, 0x01, 0x00, 0x00, 0x00,
  0x64, 0x00, 0x00, 0x00, 0x10, 0x00, 0x00, 0x00, 0xfc, 0xec, 0xff, 0xff,
  0x08, 0x00, 0x00, 0x00, 0x10, 0x00, 0x00, 0x00, 0x01, 0x00, 0x00, 0x00,
  0x80, 0xff, 0xff, 0xff, 0xff, 0xff, 0xff, 0xff, 0x01, 0x00, 0x00, 0x00,
  0xa3, 0x5a, 0xc9, 0x3c, 0xa2, 0x00, 0x00, 0x00, 0x66, 0x75, 0x6e, 0x63,
  0x74, 0x69, 0x6f, 0x6e, 0x61, 0x6c, 0x5f, 0x31, 0x2f, 0x63, 0x6f, 0x6e,
  0x76, 0x31, 0x64, 0x5f, 0x31, 0x2f, 0x52, 0x65, 0x6c, 0x75, 0x3b, 0x66,
  0x75, 0x6e, 0x63, 0x74, 0x69, 0x6f, 0x6e, 0x61, 0x6c, 0x5f, 0x31, 0x2f,
  0x63, 0x6f, 0x6e, 0x76, 0x31, 0x64, 0x5f, 0x31, 0x2f, 0x42, 0x69, 0x61,
  0x73, 0x41, 0x64, 0x64, 0x3b, 0x66, 0x75, 0x6e, 0x63, 0x74, 0x69, 0x6f,
  0x6e, 0x61, 0x6c, 0x5f, 0x31, 0x2f, 0x63, 0x6f, 0x6e, 0x76, 0x31, 0x64,
  0x5f, 0x31, 0x2f, 0x63, 0x6f, 0x6e, 0x76, 0x6f, 0x6c, 0x75, 0x74, 0x69,
  0x6f, 0x6e, 0x2f, 0x53, 0x71, 0x75, 0x65, 0x65, 0x7a, 0x65, 0x3b, 0x66,
  0x75, 0x6e, 0x63, 0x74, 0x69, 0x6f, 0x6e, 0x61, 0x6c, 0x5f, 0x31, 0x2f,
  0x63, 0x6f, 0x6e, 0x76, 0x31, 0x64, 0x5f, 0x31, 0x2f, 0x53, 0x71, 0x75,
  0x65, 0x65, 0x7a, 0x65, 0x3b, 0x66, 0x75, 0x6e, 0x63, 0x74, 0x69, 0x6f,
  0x6e, 0x61, 0x6c, 0x5f, 0x31, 0x2f, 0x63, 0x6f, 0x6e, 0x76, 0x31, 0x64,
  0x5f, 0x31, 0x2f, 0x63, 0x6f, 0x6e, 0x76, 0x6f, 0x6c, 0x75, 0x74, 0x69,
